{"version": "1.0", "truncation": null, "padding": null, "added_tokens": [{"id": 0, "content": "<s>", "single_word": false, "lstrip": false, "rstrip": false, "normalized": true, "special": true}, {"id": 1, "content": "<pad>", "single_word": false, "lstrip": false, "rstrip": false, "normalized": true, "special": true}, {"id": 2, "content": "</s>", "single_word": false, "lstrip": false, "rstrip": false, "normalized": true, "special": true}, {"id": 3, "content": "<unk>", "single_word": false, "lstrip": false, "rstrip": false, "normalized": true, "special": true}, {"id": 50264, "content": "<mask>", "single_word": false, "lstrip": true, "rstrip": false, "normalized": true, "special": true}], "normalizer": null, "pre_tokenizer": {"type": "ByteLevel", "add_prefix_space": false, "trim_offsets": true, "use_regex": true}, "post_processor": {"type": "RobertaProcessing", "sep": ["</s>", 2], "cls": ["<s>", 0], "trim_offsets": true, "add_prefix_space": false}, "decoder": {"type": "ByteLevel", "add_prefix_space": true, "trim_offsets": true, "use_regex": true}, "model": {"type": "BPE", "dropout": null, "unk_token": null, "continuing_subword_prefix": "", "end_of_word_suffix": "", "fuse_unk": false, "byte_fallback": false, "ignore_merges": false, "vocab": {"<s>": 0, "<pad>": 1, "</s>": 2, "<unk>": 3, ".": 4, "\u0120the": 5, ",": 6, "\u0120to": 7, "\u0120and": 8, "\u0120of": 9, "\u0120a": 10, "\u0120in": 11, "-": 12, "\u0120for": 13, "\u0120that": 14, "\u0120on": 15, "\u0120is": 16, "\u00e2\u0122": 17, "'s": 18, "\u0120with": 19, "\u0120The": 20, "\u0120was": 21, "\u0120\"": 22, "\u0120at": 23, "\u0120it": 24, "\u0120as": 25, "\u0120said": 26, "\u013b": 27, "\u0120be": 28, "s": 29, "\u0120by": 30, "\u0120from": 31, "\u0120are": 32, "\u0120have": 33, "\u0120has": 34, ":": 35, "\u0120(": 36, "\u0120he": 37, "\u0120I": 38, "\u0120his": 39, "\u0120will": 40, "\u0120an": 41, "\u0120this": 42, ")": 43, "\u0120\u00e2\u0122": 44, "\u0120not": 45, "\u013f": 46, "\u0120you": 47, "\u013e": 48, "\u0120their": 49, "\u0120or": 50, "\u0120they": 51, "\u0120we": 52, "\u0120but": 53, "\u0120who": 54, "\u0120more": 55, "\u0120had": 56, "\u0120been": 57, "\u0120were": 58, "\u0120about": 59, ",\"": 60, "\u0120which": 61, "\u0120up": 62, "\u0120its": 63, "\u0120can": 64, "\u0120one": 65, "\u0120out": 66, "\u0120also": 67, "\u0120$": 68, "\u0120her": 69, "\u0120all": 70, "\u0120after": 71, ".\"": 72, "/": 73, "\u0120would": 74, "'t": 75, "\u0120year": 76, "\u0120when": 77, "\u0120first": 78, "\u0120she": 79, "\u0120two": 80, "\u0120over": 81, "\u0120people": 82, "\u0120A": 83, "\u0120our": 84, "\u0120It": 85, "\u0120time": 86, "\u0120than": 87, "\u0120into": 88, "\u0120there": 89, "t": 90, "\u0120He": 91, "\u0120new": 92, "\u0120\u00e2\u0122\u0136": 93, "\u0120last": 94, "\u0120just": 95, "\u0120In": 96, "\u0120other": 97, "\u0120so": 98, "\u0120what": 99, "I": 100, "\u0120like": 101, "a": 102, "\u0120some": 103, "S": 104, "\u00c3\u00ab": 105, "\u0120them": 106, "\u0120years": 107, "'": 108, "\u0120do": 109, "\u0120your": 110, "\u0120-": 111, "\u01201": 112, "\"": 113, "\u0120if": 114, "\u0120could": 115, "?": 116, "\u0120no": 117, "i": 118, "m": 119, "\u0120get": 120, "\u0120U": 121, "\u0120now": 122, "\u0120him": 123, "\u0120back": 124, "\u0120But": 125, "\u0120\u00e2\u0122\u0135": 126, "\u0120my": 127, "\u0120'": 128, "\u0120only": 129, "\u0120three": 130, ";": 131, "\u01202": 132, "The": 133, "1": 134, "\u0120percent": 135, "\u0120against": 136, "\u0120before": 137, "\u0120company": 138, "o": 139, "\u0120Trump": 140, "\u0120how": 141, "\u0120because": 142, "\u0120any": 143, "\u0120most": 144, "\u0120being": 145, "\u0120make": 146, "\u0120where": 147, "\u0120during": 148, "\u0120through": 149, "\u0120while": 150, "000": 151, "\u0120This": 152, "\u0120million": 153, "ing": 154, "\u01203": 155, "\u0120made": 156, "\u0120well": 157, "\u012010": 158, "\u0120down": 159, "\u0120off": 160, "\u0120says": 161, "\u0120me": 162, "\u0120B": 163, "\u0120going": 164, "\u0120team": 165, "\u0120We": 166, "\u0120those": 167, "\u0120government": 168, "\u0120way": 169, "We": 170, "\u0120many": 171, "\u0120then": 172, "\u0120work": 173, "\u0120told": 174, "com": 175, "2": 176, "\u0120game": 177, "\u0120And": 178, "in": 179, "year": 180, "\u0120p": 181, "\u0120very": 182, "\u0120day": 183, "\u0120home": 184, "\u0120take": 185, "\u0120week": 186, "\u0120since": 187, "\u0120New": 188, "\u0120may": 189, "\u0120even": 190, "\u0120season": 191, "\u0120see": 192, "\u01202017": 193, "\u0120state": 194, "\u01205": 195, "ed": 196, "\u0120should": 197, "\u0120around": 198, "\u01202018": 199, "\u0120second": 200, "\u0120us": 201, "\u0120still": 202, "\u0120much": 203, "\u01204": 204, "\u0120good": 205, "\u0120think": 206, "%": 207, "\u0120S": 208, "\u0120these": 209, "\u0120market": 210, "\u0120D": 211, "th": 212, "\u0120go": 213, "'re": 214, "\u0120such": 215, "\u0120know": 216, "\u0120including": 217, "\u0120don": 218, "y": 219, "\u0120next": 220, "\u0120P": 221, "\u0120did": 222, "\u0120under": 223, "\u0120say": 224, "en": 225, "\u0120L": 226, "\u0120between": 227, "\u0120per": 228, "\u0120K": 229, "\u0120C": 230, "\u01206": 231, "\u0120world": 232, "\u0120part": 233, "\u0120N": 234, "\u0120right": 235, "\u0120want": 236, "\u0120four": 237, "),": 238, "\u0120high": 239, "\u0120need": 240, "re": 241, "e": 242, "It": 243, "\u0120help": 244, "5": 245, "3": 246, "\u0120country": 247, "\u0120R": 248, "\u0120police": 249, "A": 250, "\u0120long": 251, "\u0120They": 252, "\u0120end": 253, "er": 254, "\u0120T": 255, "\u0120M": 256, "u": 257, "\u0120both": 258, "\u0120here": 259, "an": 260, "on": 261, "\u01207": 262, "\u0120de": 263, "\u0120She": 264, "\u0120business": 265, "\u0120report": 266, "j": 267, "ers": 268, "\u0120really": 269, "\u0120President": 270, "ar": 271, "\u0120G": 272, "\u0120Friday": 273, "\u0120F": 274, "\u0120best": 275, "\u0120same": 276, "\u0120another": 277, "\u0120set": 278, "old": 279, "\u0120That": 280, "as": 281, "n": 282, "\u0120come": 283, "\u0120family": 284, "\u0120public": 285, "\u0120For": 286, "\u0120As": 287, "0": 288, "\u0120H": 289, "\u01208": 290, "\u012020": 291, "\u0120five": 292, "es": 293, "\u0120Tuesday": 294, "\u0120n": 295, "\u0120Thursday": 296, "\u0120quarter": 297, "h": 298, "\u0120top": 299, "\u0120got": 300, "\u0120life": 301, "\u0120Monday": 302, "\u0120found": 303, "\u0120use": 304, "\u0120W": 305, "4": 306, "\u0120Wednesday": 307, "\u0120own": 308, "\u0120according": 309, "\u0120play": 310, "\u0120show": 311, "\u0120St": 312, "\u0120man": 313, "\u0120left": 314, "\u0120United": 315, "\u012012": 316, "\u0120place": 317, "\u0120If": 318, "\u0120lot": 319, "\u0120former": 320, "\u01200": 321, ").": 322, "\u0120support": 323, "ie": 324, "\u0120billion": 325, "\u0120t": 326, "\u0120shares": 327, "!": 328, "z": 329, "k": 330, "\u0120State": 331, "\u0120points": 332, "\u0120group": 333, "\u0120school": 334, "\u0120information": 335, "\u01202016": 336, "al": 337, "r": 338, "\u0120win": 339, "\u0120news": 340, "\u0120used": 341, "\u0120put": 342, "\u0120city": 343, "\u0120J": 344, "\u0120There": 345, "\u0120number": 346, "C": 347, "'ve": 348, "\u0120each": 349, "\u0120too": 350, "\u0120won": 351, "ly": 352, "\u0120month": 353, "is": 354, "\u0120added": 355, "\u0120look": 356, "\u0120better": 357, "\u0120every": 358, "\u0120&": 359, "\u0120days": 360, "\u01209": 361, "\u0120took": 362, "\u0120night": 363, "\u0120e": 364, "\u012011": 365, "os": 366, "\u0120few": 367, "or": 368, "\u0120North": 369, "\u0120You": 370, "\u0120third": 371, "\u0120great": 372, "\u0120called": 373, "\u0120On": 374, "\u0120past": 375, "\u0120came": 376, "\u0120months": 377, "\u0120Saturday": 378, "\u012015": 379, "\u0120big": 380, "\u0120E": 381, "\u0120US": 382, "\u0120things": 383, "\u0120O": 384, "\u0120d": 385, "\u0120start": 386, "B": 387, "\u0120stock": 388, "\u012030": 389, "\u0120women": 390, "\u0120South": 391, "\u0120May": 392, "\u0120never": 393, "\u0120president": 394, "\u0120Sunday": 395, "\u0120without": 396, "man": 397, "8": 398, "\u0120didn": 399, "\u0120local": 400, "6": 401, "\u0120something": 402, "\u0120case": 403, "\u0120All": 404, "it": 405, "7": 406, "\u0120So": 407, "\u0120children": 408, "\u0120away": 409, "\u0120little": 410, "\u0120six": 411, "\u0120City": 412, "\u0120County": 413, "\u0120data": 414, "at": 415, "\u0120already": 416, "d": 417, "\u0120money": 418, "\u0120early": 419, "\u0120across": 420, "\u0120expected": 421, "\u0120run": 422, "\u0120later": 423, "am": 424, "\u0120price": 425, "\u0120games": 426, "\u0120Mr": 427, "b": 428, "\u0120might": 429, "\u0120different": 430, "\u0120reported": 431, "\u0120deal": 432, "\u0120media": 433, "\u0120growth": 434, "\u0120community": 435, "\u0120China": 436, "'m": 437, "c": 438, "\u0120went": 439, "\u0120No": 440, "\u0120able": 441, "\u0120making": 442, "\u0120area": 443, "\u0120far": 444, "\u0120statement": 445, "\u0120House": 446, "\u0120working": 447, "M": 448, "\u0120k": 449, "\u0120seen": 450, "\u0120companies": 451, "\u0120today": 452, "\u0120members": 453, "\u0120until": 454, "\u0120full": 455, "\u0120again": 456, "\u0120half": 457, "\u0120share": 458, "le": 459, "\u0120always": 460, "\u0120court": 461, "l": 462, "and": 463, "\u0120change": 464, "\u0120find": 465, "9": 466, "\u0120system": 467, "\u0120V": 468, "\u0120York": 469, "\u0120American": 470, "\u0120head": 471, "\u0120players": 472, "\u0120does": 473, "\u0120health": 474, "\u0120m": 475, "\u0120power": 476, "\u0120point": 477, "\u0120hit": 478, "\u0120.": 479, "\u0120--": 480, "\u0120free": 481, ".,": 482, "\u0120lead": 483, "\u0120several": 484, "\u0120recent": 485, "\u0120call": 486, "N": 487, "\u0120law": 488, "\u0120keep": 489, "\u0120open": 490, "\u0120News": 491, "\u0120give": 492, "ia": 493, "\u0120March": 494, "D": 495, "\u0120National": 496, "\u0120At": 497, "\u0120times": 498, "\u0120future": 499, "R": 500, "\u012014": 501, "\u0120June": 502, "\u0120officials": 503, "\u012018": 504, "\u0120important": 505, "f": 506, "\u0120final": 507, "\u012013": 508, "\u0120One": 509, "P": 510, "\u0120following": 511, "\u0120car": 512, "\u0120least": 513, "\u0120water": 514, "\u0120event": 515, "\u0120line": 516, "\u0120move": 517, "\u0120services": 518, "\u0120having": 519, "\u0120When": 520, "\u0120students": 521, "\u0120Police": 522, "el": 523, "\u0120am": 524, "\u0120Z": 525, "\u0120side": 526, "\u0120story": 527, "\u0120due": 528, "\u0120meeting": 529, "K": 530, "\u0120must": 531, "\u0120States": 532, "\u0120likely": 533, "G": 534, "\u0120continue": 535, "\u0120ago": 536, "\u0120party": 537, "\u0120major": 538, "\u0120industry": 539, "\u0120less": 540, "30": 541, "\u0120un": 542, "\u0120hard": 543, "\u0120service": 544, "\u012016": 545, "\u0120looking": 546, "\u0120held": 547, "ve": 548, "\u0120whether": 549, "\u0120July": 550, "\u0120taken": 551, "\u0120along": 552, "\u0120asked": 553, "\u0120started": 554, "\u0120become": 555, "\u0120forward": 556, "\u0120research": 557, "\u0120office": 558, "\u0120political": 559, "to": 560, "\u0120together": 561, "\u0120getting": 562, "\u0120plan": 563, "\u012025": 564, "T": 565, "\u0120among": 566, "\u0120coming": 567, "\u0120decision": 568, "\u0120video": 569, "\u01202015": 570, "g": 571, "\u0120After": 572, "\u0120security": 573, "L": 574, "\u0120care": 575, "\u0120given": 576, "\u0120available": 577, "\u00e2\u0122\u0136": 578, "\u0120s": 579, "\u0120West": 580, "'ll": 581, "\u0120pay": 582, "\u0120near": 583, "\u0120saying": 584, "\u0120announced": 585, "\u0120program": 586, "\u0120April": 587, "\u0120real": 588, "\u0120University": 589, "\u0120With": 590, "AP": 591, "\u0120social": 592, "\u0120close": 593, "et": 594, "\u0120current": 595, "\u0120why": 596, "F": 597, "\u0120To": 598, "\u0120Twitter": 599, "\u0120though": 600, "\u012017": 601, "\u0120taking": 602, "\u0120Inc": 603, "\u0120men": 604, "w": 605, "\u0120comes": 606, "ley": 607, "\u0120doing": 608, "\u0120process": 609, "\u0120John": 610, "ch": 611, "00": 612, "\u0120financial": 613, "\u0120low": 614, "\u0120enough": 615, "\u0120While": 616, "\u0120further": 617, "\u0120post": 618, "\u0120feel": 619, "st": 620, "\u0120person": 621, "\u0120Facebook": 622, "\u0120World": 623, "\u0120within": 624, "ad": 625, "\u0120done": 626, "the": 627, "\u0120late": 628, "\u0120tax": 629, "\u0120doesn": 630, "\u0120thing": 631, "\u0120national": 632, "\u0120job": 633, "\u0120using": 634, "\u0120However": 635, "ic": 636, "\u0120campaign": 637, "\u0120record": 638, "\u0120behind": 639, "://": 640, "\u0120Department": 641, "p": 642, "\u0120others": 643, "\u0120January": 644, "\u0120order": 645, "\u0120[": 646, "\u0120sales": 647, "\u0120yet": 648, "\u00c4": 649, "\u0120small": 650, "\u0120series": 651, "\u0120face": 652, "\u0120What": 653, "\u012050": 654, "\u0120ever": 655, "\u0120earlier": 656, "\u0120love": 657, "up": 658, "\u0120rights": 659, "\u0120An": 660, "ist": 661, "\u0120morning": 662, "\u0120Washington": 663, "\u0120young": 664, "\u0120latest": 665, "\u0120India": 666, "\u0120trying": 667, "\u0120fire": 668, "\u0120led": 669, "\u0120strong": 670, "\u0120return": 671, "\u0120level": 672, "O": 673, "\u0120average": 674, "\u0120period": 675, "\u0120experience": 676, "ak": 677, "\u0120possible": 678, "\u0120believe": 679, "\u0120include": 680, "\u0120oil": 681, "\u0120recently": 682, "\u0120once": 683, "\u0120known": 684, "\u0120lost": 685, "\u0120sure": 686, "us": 687, "\u0120weeks": 688, "\u0120food": 689, "\u0120reports": 690, "\u0120rating": 691, "\u0120Minister": 692, "\u0120woman": 693, "\u0120provide": 694, "\u0120project": 695, "\u0120issue": 696, "\u0120live": 697, "10": 698, "\u0120clear": 699, "he": 700, "\u0120cost": 701, "\u0120played": 702, "\u0120released": 703, "\u0120coach": 704, "v": 705, "\u012024": 706, "\u0120seven": 707, "\u0120plans": 708, "\u0120development": 709, "ur": 710, "\u013a": 711, "\u0120increase": 712, "This": 713, "\u0120policy": 714, "\u0120cent": 715, "\u0120based": 716, "E": 717, "il": 718, "\u0120December": 719, "\u0120global": 720, "\u0120trade": 721, "\u0120hours": 722, "\u0120higher": 723, "\u0120goal": 724, "H": 725, "\u0120Al": 726, "\u0120100": 727, "\u0120minutes": 728, "\u0120election": 729, "\u0120America": 730, "\u0120rate": 731, "\u0120Ch": 732, "\u012021": 733, "...": 734, "\u0120White": 735, "\u0120director": 736, "\u0120position": 737, "\u0120shot": 738, "\u0120large": 739, "\u0120c": 740, "\u0120b": 741, "]": 742, "\u0120issues": 743, "\u0120death": 744, "\u0120building": 745, "\u0120total": 746, "\u0120often": 747, "\u0120v": 748, "\u0120countries": 749, "\u0120history": 750, "\u0120outside": 751, "\u0120federal": 752, "\u012019": 753, "\u0120fact": 754, "\u0120High": 755, "\u0120career": 756, "im": 757, "\u0120international": 758, "\u0120November": 759, "\u0120front": 760, "\u0120kind": 761, "\u0120key": 762, "ra": 763, "\u0120San": 764, "\u0120short": 765, "\u0120name": 766, "\u0120According": 767, "\u0120course": 768, "\u0120re": 769, "\u0120wanted": 770, "W": 771, "\u0120September": 772, "\u0120interest": 773, "\u0120role": 774, "\u0120results": 775, "\u0120economic": 776, "\u01202014": 777, "\u0120chance": 778, "\u0120October": 779, "\u0120special": 780, "\u0120official": 781, "\u0120needs": 782, "um": 783, "\u0120l": 784, "\u0120products": 785, "\u0120non": 786, "\u0120@": 787, "\u0120Bank": 788, "\u0120ahead": 789, "\u0120house": 790, "U": 791, "\u0120board": 792, "\u0120old": 793, "\u0120saw": 794, "\u0120lower": 795, "\u0120European": 796, "\u0120control": 797, "\u0120Russia": 798, "\u0120eight": 799, "\u0120release": 800, "\u0120potential": 801, "\u0120thought": 802, "\u0120investigation": 803, "\u0120online": 804, "based": 805, "\u0120technology": 806, "\u0120Donald": 807, "id": 808, "\u0120body": 809, "\u0120risk": 810, "ian": 811, "\u0120capital": 812, "\u0120staff": 813, "\u0120action": 814, "\u0120League": 815, "\u0120playing": 816, "\u0120makes": 817, "\u0120almost": 818, "\u0120performance": 819, "\u012022": 820, "\u0120g": 821, "\u0120film": 822, "\u0120nearly": 823, "\u0120Center": 824, "\u0120visit": 825, "\u0120Group": 826, "\u0120bank": 827, "\u0120bit": 828, "\u0120received": 829, "\u0120August": 830, "\u0120military": 831, "\u0120His": 832, "ine": 833, "\u0120chief": 834, "\u0120School": 835, "\u0120bring": 836, "\u0120Court": 837, "\u0120(@": 838, "\u0120means": 839, "\u0120Sh": 840, "\u0120fans": 841, "\u0120se": 842, "\u012040": 843, "20": 844, "\".": 845, "V": 846, "\u0120cut": 847, "\u0120killed": 848, "\u0120#": 849, "\u0120prices": 850, "\u0120gave": 851, "\u0120Street": 852, "ir": 853, "\u0120Y": 854, "\u0120currently": 855, "\u0120f": 856, "ay": 857, "ne": 858, "te": 859, "\u0120try": 860, "\u0120Park": 861, "\u0125": 862, "J": 863, "\u0120question": 864, "\u0120hand": 865, "\u0120economy": 866, "\u0120investors": 867, "able": 868, "\u0120player": 869, "\u0120By": 870, "\u0120David": 871, "\u0120loss": 872, "ab": 873, "\u0120below": 874, "\u0120wrote": 875, "co": 876, "ate": 877, "\u0120running": 878, "un": 879, "\u0120began": 880, "\u0120single": 881, "\u0120field": 882, "\u012023": 883, "\u0120leader": 884, "\u0120w": 885, "\u0120California": 886, "\u0120fourth": 887, "\u0120actually": 888, "\u0120list": 889, "ll": 890, "\u0120couple": 891, "\u0120study": 892, "\u0120teams": 893, "He": 894, "ah": 895, "\u0120Canada": 896, "\u0120la": 897, "\u0120result": 898, "\u0120access": 899, "\u0120vote": 900, "\u0120More": 901, "\u0120February": 902, "\u0120revenue": 903, "\u0120offer": 904, "\u0120let": 905, "ier": 906, "\u0120buy": 907, "\u0120attack": 908, "\u0120black": 909, "\u0120r": 910, "\u0120areas": 911, "\u0120stop": 912, "\u0120impact": 913, "\u0120match": 914, "\u0120investment": 915, "\u0120customers": 916, "\u0120leaders": 917, "ies": 918, "\u0120member": 919, "\u0120child": 920, "\u0120road": 921, "ul": 922, "\u0120value": 923, "\u0120shows": 924, "\u0120Dr": 925, "\u0120De": 926, "ant": 927, "\u0120London": 928, "\u0120room": 929, "\u0120music": 930, "\u0120production": 931, "\u0120anything": 932, "\u0120firm": 933, "\u0120biggest": 934, "\u0120air": 935, "\u0120problem": 936, "\u0120general": 937, "\u0120wasn": 938, "\u0120i": 939, "\u0120private": 940, "\u0120especially": 941, "\u0120administration": 942, "\u0120additional": 943, "\u0120Co": 944, "\u0120opportunity": 945, "\u0120hold": 946, "&": 947, "\u0120matter": 948, "\u0120senior": 949, "\u0120club": 950, "\u0120someone": 951, "\u0120\u00c3": 952, "\u0120East": 953, "\u01202019": 954, ".'": 955, "\u0120needed": 956, "\u0120James": 957, "time": 958, "\u0120however": 959, "\u0120everything": 960, "\u0120everyone": 961, "\u0120died": 962, "\u0120involved": 963, "\u0120friends": 964, "\u0120isn": 965, "\u0120worth": 966, "ik": 967, "\u0120Cup": 968, "\u0120showed": 969, "There": 970, "\u012028": 971, "\u0120meet": 972, "\u012026": 973, "\u012027": 974, "Y": 975, "\u0120region": 976, "\u0120Press": 977, "\u0120Now": 978, "\u0120son": 979, "\u0120space": 980, "\u0120leading": 981, "\u0120states": 982, "\u0120weekend": 983, "\u0120\u00c2\u00a3": 984, "\u0120mother": 985, "\u0120previous": 986, "\u0120UK": 987, "\u0120Michael": 988, "\u0120leave": 989, "est": 990, "em": 991, "\u0120z": 992, "\u0120Some": 993, "ors": 994, "out": 995, "15": 996, "\u0120war": 997, "\u0120website": 998, "\u0120star": 999, "X": 1000, "ro": 1001, "\u0120target": 1002, "\u0120himself": 1003, "\u0120turn": 1004, "\u0120Europe": 1005, "\u0120worked": 1006, "\u0120energy": 1007, "\u0120scored": 1008, "\u0120*": 1009, "\u0120soon": 1010, "\u0120ball": 1011, "\u0120TV": 1012, "\u0120annual": 1013, "\u01202013": 1014, "\u0120race": 1015, "\u0120International": 1016, "'d": 1017, "\u0120Market": 1018, "\u0120conference": 1019, "io": 1020, "\u0120o": 1021, "\u0120changes": 1022, "ig": 1023, "\u0120officers": 1024, "\u0120inside": 1025, "\u0120form": 1026, "\u0120published": 1027, "\u0120phone": 1028, "\u0120co": 1029, "\u0120legal": 1030, "\u0120executive": 1031, "\u0120fight": 1032, "ings": 1033, "\u0120hope": 1034, "\u0120summer": 1035, "\u0120officer": 1036, "\u0120football": 1037, "\u0120property": 1038, "@": 1039, "\u0120book": 1040, "\u0120parents": 1041, "\u0120costs": 1042, "ac": 1043, "\u0120manager": 1044, "\u0120create": 1045, "\u0120age": 1046, "\u0120email": 1047, "\u0120markets": 1048, "\u0120main": 1049, "\u0120human": 1050, "\u0120sent": 1051, "\u0120management": 1052, "\u0120Day": 1053, "ton": 1054, "\u0120cash": 1055, "\u0120focus": 1056, "\u0120expect": 1057, "\u0120training": 1058, "\u0120became": 1059, "\u0120whose": 1060, "\u0120events": 1061, "\u0120round": 1062, "\u0120Le": 1063, "\u0120fell": 1064, "\u0120above": 1065, "\u0120analysts": 1066, "\u0120talk": 1067, "\u0120situation": 1068, "ri": 1069, "ated": 1070, "ke": 1071, "\u0120wants": 1072, "ag": 1073, "\u0120lives": 1074, "om": 1075, "\u0120al": 1076, "\u0120demand": 1077, "\u0120safety": 1078, "\u0120rest": 1079, "\u0120Council": 1080, "\u0120personal": 1081, "\u0120site": 1082, "\u0120Russian": 1083, "\u0120mid": 1084, "\u0120nothing": 1085, "\u0120whole": 1086, "\u0120bill": 1087, "\u0120sold": 1088, "\u0120British": 1089, "se": 1090, "\u0120remain": 1091, "12": 1092, "\u0120foreign": 1093, "\u0120shooting": 1094, "\u0120stay": 1095, "50": 1096, "ang": 1097, "\u0120hospital": 1098, "\u0120bad": 1099, "\u0120address": 1100, "\u0120Korea": 1101, "\u0120happened": 1102, "\u0120charges": 1103, "\u0120white": 1104, "\u012031": 1105, "If": 1106, "\u0120earnings": 1107, "\u0120break": 1108, "\u0120light": 1109, "\u0120terms": 1110, "\u0120Chinese": 1111, "\u0120Senate": 1112, "ana": 1113, "\u0120idea": 1114, "ap": 1115, "of": 1116, "\u0120nine": 1117, "\u0120compared": 1118, "\u0120build": 1119, "ard": 1120, "In": 1121, "\u0120similar": 1122, "\u0120gas": 1123, "\u0120victory": 1124, "\u01202012": 1125, "\u0120debt": 1126, "\u0120Mar": 1127, "\u0120arrested": 1128, "\u0120comment": 1129, "\u0120increased": 1130, "\u0120medical": 1131, "\u012029": 1132, "\u0120Jan": 1133, "\u0120groups": 1134, "\u0120despite": 1135, "\u0120fall": 1136, "\u0120tell": 1137, "\u0120workers": 1138, "\u0120town": 1139, "\u00c3\u00a9": 1140, "\u0120wife": 1141, "\u0120questions": 1142, "\u0120continued": 1143, "\u0120heart": 1144, "\u0120met": 1145, "\u0120brought": 1146, "\u0120helped": 1147, "\u0120Congress": 1148, "\u0120step": 1149, "\u0120father": 1150, "\u0120moment": 1151, "\u0120product": 1152, "\u0120probably": 1153, "\u0120largest": 1154, "\u0120vehicle": 1155, "\u0120England": 1156, "\u0120allow": 1157, "\u0120starting": 1158, "\u0120kids": 1159, "\u0120incident": 1160, "\u0120net": 1161, "\u0120rates": 1162, "\u0120Read": 1163, "\u0120pressure": 1164, "\u0120included": 1165, "\u0120read": 1166, "\u0120issued": 1167, "ol": 1168, "\u0120either": 1169, "\u0120efforts": 1170, "\u0120includes": 1171, "\u0120Republican": 1172, "ish": 1173, "\u00e2\u0122\u00a6": 1174, "\u0120goals": 1175, "aj": 1176, "\u0120en": 1177, "x": 1178, "\u0120raised": 1179, "au": 1180, "\u0120longer": 1181, "ut": 1182, "\u0120watch": 1183, "\u0120Texas": 1184, "You": 1185, "\u0120range": 1186, "nd": 1187, "\u0120funds": 1188, "\u0120remains": 1189, "\u0120Mark": 1190, "\u012060": 1191, "\u0120que": 1192, "sh": 1193, "\u0120interview": 1194, "\u0120rather": 1195, "\u0120residents": 1196, "\u0120growing": 1197, "\u0120pre": 1198, "\u0120paid": 1199, "\u0120cases": 1200, "\u0120Reuters": 1201, "\u0120difficult": 1202, "\u0120sign": 1203, "\u0120Google": 1204, "\u0120https": 1205, "\u0120Paul": 1206, "\u0120living": 1207, "day": 1208, "\u0120Q": 1209, "iz": 1210, "\u0120Red": 1211, "\u0120land": 1212, "They": 1213, "\u0120Road": 1214, "_": 1215, "\u0120These": 1216, "\u0120view": 1217, "\u0120agency": 1218, "\u0120reason": 1219, "\u0120allowed": 1220, "\u0120Australia": 1221, "az": 1222, "\u0120Re": 1223, "\u0120turned": 1224, "11": 1225, "\u0120nation": 1226, "\u0120ready": 1227, "\u0120press": 1228, "\u0120budget": 1229, "\u0120daily": 1230, "\u0120Chief": 1231, "\u0120families": 1232, "\u0120significant": 1233, "\u0120First": 1234, "\u0120themselves": 1235, "\u0120j": 1236, "\u0120runs": 1237, "\u0120accused": 1238, "\u0120takes": 1239, "\u0120spent": 1240, "\u0120via": 1241, "ot": 1242, "ina": 1243, "25": 1244, "land": 1245, "\u0120example": 1246, "\u0120authorities": 1247, "\u0120date": 1248, "\u0120ended": 1249, "all": 1250, "Reuters": 1251, "\u0120businesses": 1252, "ans": 1253, "\u0120details": 1254, "\u0120ground": 1255, "\u0120pretty": 1256, "\u0120Apple": 1257, "ation": 1258, "\u0120Smith": 1259, "\u0120Company": 1260, "\u0120Florida": 1261, "\u0120drug": 1262, "\u0120response": 1263, "one": 1264, "\u0120education": 1265, "\u0120mean": 1266, "\u0120league": 1267, "\u0120anyone": 1268, "\u0120minister": 1269, "\u0120title": 1270, "\u0120adding": 1271, "\u0120problems": 1272, "\u0120opening": 1273, "\u0120conditions": 1274, "\u0120red": 1275, "\u0120decided": 1276, "\u00c5": 1277, "\u0120posted": 1278, "term": 1279, "\u0120amount": 1280, "\u0120EU": 1281, "\u0120success": 1282, "\u0120evidence": 1283, "\u0120Obama": 1284, "\u0120addition": 1285, "\u0120provided": 1286, "\u0120Los": 1287, "\u0120agreement": 1288, "\u0120stage": 1289, "ens": 1290, "\u0120relationship": 1291, "\u0120General": 1292, "\u0120sector": 1293, "\u0120student": 1294, "ating": 1295, "\u0120test": 1296, "\",": 1297, "\u0120winning": 1298, "\u0120felt": 1299, "\u0120source": 1300, "Z": 1301, "\u0120seems": 1302, "\u0120cause": 1303, "\u0120schools": 1304, "\u0120drive": 1305, "\u0120ensure": 1306, "\u0120huge": 1307, "\u0120My": 1308, "\u0120Health": 1309, "\u0120scene": 1310, "\u0120giving": 1311, "\u0120center": 1312, "\u0120positive": 1313, "\u0120yards": 1314, "\u0120jobs": 1315, "\u0120account": 1316, "\u0120heard": 1317, "\u0120quality": 1318, "\u0120ways": 1319, "\u0120immediately": 1320, "\u0120employees": 1321, "are": 1322, "\u0120pass": 1323, "\u0120CEO": 1324, "\u0120receive": 1325, "\u0120looks": 1326, "\u0120Africa": 1327, "\u0120throughout": 1328, "led": 1329, "\u0120related": 1330, "\u0120sell": 1331, "\u0120Union": 1332, "\u0120Photo": 1333, "ter": 1334, "\u0120quickly": 1335, "\u0120How": 1336, "\u0120various": 1337, "\u0120reach": 1338, "\u0120pick": 1339, "\u0120charged": 1340, "\u0120quite": 1341, "ent": 1342, "q": 1343, "ins": 1344, "\u0120photo": 1345, "\u0120understand": 1346, "\u0120\u00e2\u0122\u00a2": 1347, "\u0120reached": 1348, "\u0120track": 1349, "uk": 1350, "\u0120effort": 1351, "ville": 1352, "\u0120central": 1353, "\u0120daughter": 1354, "\u0120contract": 1355, "\u0120injury": 1356, "\u0120opened": 1357, "\u0120($": 1358, "\u0120straight": 1359, "17": 1360, "\u0120credit": 1361, "\u0120Indian": 1362, "\u0120sexual": 1363, "\u0120works": 1364, "\u0120easy": 1365, "18": 1366, "\u0120closed": 1367, "\u0120h": 1368, "\u0120happen": 1369, "\u0120force": 1370, "ler": 1371, "\u0120happy": 1372, "\u0120shared": 1373, "\u0120overall": 1374, "\u0120moving": 1375, "\u00e1": 1376, "\u0120projects": 1377, "\u0120Black": 1378, "\u0120concerns": 1379, "\u0120class": 1380, "\u0120tried": 1381, "\u0120appeared": 1382, "\u0120content": 1383, "\u0120District": 1384, "\u0120term": 1385, "\u0120instead": 1386, "\u0120Office": 1387, "\u0120continues": 1388, "\u0120levels": 1389, "\u0120afternoon": 1390, "\u0120fund": 1391, "\u0120sale": 1392, "\u0120driver": 1393, "\u0120ask": 1394, "\u0120cannot": 1395, "ner": 1396, "end": 1397, "\u0120Here": 1398, "field": 1399, "\u0120store": 1400, "www": 1401, "\u0120certain": 1402, "\u0120self": 1403, "\u0120dollar": 1404, "\u0120Her": 1405, "\u0120popular": 1406, "\u0120follow": 1407, "\u0120spending": 1408, "by": 1409, "\u0120moved": 1410, "\u0120goes": 1411, "\u0120created": 1412, "\u0120stand": 1413, "\u0120operations": 1414, "\u0120looked": 1415, "\u0120treatment": 1416, "ov": 1417, "\u0120district": 1418, "\u0120signed": 1419, "\u0120hands": 1420, "\u0120model": 1421, "\u0120Angeles": 1422, "\u0120y": 1423, "\u0120border": 1424, "\u0120income": 1425, "\u0120Last": 1426, "\u0120charge": 1427, "\u0120driving": 1428, "\u0120Japan": 1429, "\u0120rise": 1430, "\u0120talks": 1431, "\u0120followed": 1432, "\u0120previously": 1433, "\u0120users": 1434, "\u0120funding": 1435, "\u0120Johnson": 1436, "\u0120": 1437, "ou": 1438, "ai": 1439, "\u0120named": 1440, "\u0120friend": 1441, "\u0120Nov": 1442, "\u0120defense": 1443, "\u0120Britain": 1444, "\u0120entire": 1445, "\u0120trading": 1446, "\u0120failed": 1447, "\u0120El": 1448, "\u0120claims": 1449, "\u0120comments": 1450, "\u0120beat": 1451, "ib": 1452, "\u0120basis": 1453, "\u0120Jones": 1454, "\u0120present": 1455, "\u0120Be": 1456, "\u0120double": 1457, "\u0120rose": 1458, "ite": 1459, "\u0120ability": 1460, "\u0120original": 1461, "\u0120dead": 1462, "\u0120Commission": 1463, "\u0120Me": 1464, "\u0120competition": 1465, "\u01202011": 1466, "\u0120knew": 1467, "\u0120material": 1468, "av": 1469, "\u0120France": 1470, "\u0120score": 1471, "\u0120sense": 1472, "\u0120serious": 1473, "\u0120confirmed": 1474, "\u0120anti": 1475, "\u0120violence": 1476, "\u0120improve": 1477, "son": 1478, "\u00c3\u00b3": 1479, "\u0120AP": 1480, "\u0120sh": 1481, "\u0120host": 1482, "\u0120Mike": 1483, "\u0120patients": 1484, "\u0120NFL": 1485, "\u0120crisis": 1486, "\u0120revealed": 1487, "ach": 1488, "\u0120Prime": 1489, "\u0120built": 1490, "\u0120Not": 1491, "\u0120rules": 1492, "\u0120else": 1493, "\u0120department": 1494, "\u0120itself": 1495, "ise": 1496, "500": 1497, "\u0120complete": 1498, "ion": 1499, "\u0120trial": 1500, "\u0120Bay": 1501, "\u0120Dec": 1502, "\u0120attention": 1503, "\u0120travel": 1504, "\u0120Central": 1505, "ry": 1506, "\u0120agreed": 1507, "\u0120mind": 1508, "\u0120Mc": 1509, "\u012070": 1510, "\u0120contact": 1511, "ari": 1512, "\u0120Times": 1513, "\u0120spot": 1514, "\u0120French": 1515, "\u0120gets": 1516, "op": 1517, "\u0120brand": 1518, "\u0120calls": 1519, "\u0120banks": 1520, "\u0120design": 1521, "\u0120safe": 1522, "\u0120offers": 1523, "\u0120practice": 1524, "\u0120Of": 1525, "\u00c3\u00a1": 1526, "ling": 1527, "\u0120true": 1528, "off": 1529, "\u0120numbers": 1530, "\u0120fun": 1531, "\u0120learn": 1532, "\u0120multiple": 1533, "\u0120Is": 1534, "res": 1535, "als": 1536, "\u0120common": 1537, "ized": 1538, "\u0120challenge": 1539, "\u0120committee": 1540, "\u0120Our": 1541, "\u0120base": 1542, "ani": 1543, "\u0120Association": 1544, "ung": 1545, "\u0120network": 1546, "\u0120Brown": 1547, "\u0120approach": 1548, "16": 1549, "\u0120finished": 1550, "\u0120review": 1551, "\u0120required": 1552, "\u0120app": 1553, "\u0120Man": 1554, "\u0120\u00e2\u0122\u00a6": 1555, "twitter": 1556, "\u0120Democratic": 1557, "13": 1558, "\u0120evening": 1559, "\u0120Tom": 1560, "\u00c3\u00a4": 1561, "\u0120Associated": 1562, "\u0120Canadian": 1563, "\u0120college": 1564, "\u0120spokesman": 1565, "\u0120article": 1566, "\u0120towards": 1567, "\u0120Chicago": 1568, "\u0120movie": 1569, "14": 1570, "ity": 1571, "\u0120forces": 1572, "\u0120Chris": 1573, "\u0120Democrats": 1574, "\u0120features": 1575, "\u0120hearing": 1576, "\u0120X": 1577, "\u0120Also": 1578, "\u0120message": 1579, "age": 1580, "\u0120noted": 1581, "\u0120Super": 1582, "\u0120thousands": 1583, "aw": 1584, "\u0120Bill": 1585, "\u0120Ar": 1586, "\u0120La": 1587, "ip": 1588, "\u0120/": 1589, "\u0120During": 1590, "\u0120note": 1591, ".)": 1592, "\u0120wrong": 1593, "if": 1594, "\u0120passed": 1595, "\u0120Two": 1596, "\u0120die": 1597, ",'": 1598, "\u0120Don": 1599, "\u0120Germany": 1600, "\u0120letter": 1601, "\u0120described": 1602, "\u0120Iran": 1603, "\u0120Williams": 1604, "\u0120particularly": 1605, "\u0120add": 1606, "\u0120conversation": 1607, "\u0120Se": 1608, "\u0120highest": 1609, "be": 1610, "\u0120homes": 1611, "\u0120sports": 1612, "\u0120gone": 1613, "\u0120Ad": 1614, "\u0120el": 1615, "\u0120opportunities": 1616, "\u0120words": 1617, "\u0120leaving": 1618, "\u0120Christmas": 1619, "As": 1620, "\u0120Government": 1621, "\u0120simply": 1622, "\u0120husband": 1623, "\u0120Research": 1624, "\u0120Mexico": 1625, "ates": 1626, "ale": 1627, "\u0120Green": 1628, "$": 1629, "od": 1630, "\u0120Hall": 1631, "\u0120natural": 1632, "\u0120operating": 1633, "les": 1634, "ations": 1635, "\u0120Kim": 1636, "\u0120gold": 1637, "ok": 1638, "\u0120provides": 1639, "(": 1640, "ell": 1641, "\u0120begin": 1642, "\u0120Party": 1643, "back": 1644, "\u0120Amazon": 1645, "19": 1646, "\u0120majority": 1647, "\u0120Even": 1648, "\u0120check": 1649, "\u0120weather": 1650, "\u0120organization": 1651, "\u0120stories": 1652, "\u0120Car": 1653, "\u0120forced": 1654, "\u0120George": 1655, "\u0120walk": 1656, "ong": 1657, "\u0120filed": 1658, "\u0120Justice": 1659, "\u0120launched": 1660, "\u0120offered": 1661, "\u0120www": 1662, "\u0120construction": 1663, "\u0120Ben": 1664, "\u0120served": 1665, "\u0120...": 1666, "\u0120parts": 1667, "\u0120cancer": 1668, "\u0120guys": 1669, "Reporting": 1670, "ash": 1671, "less": 1672, "\u0120leadership": 1673, "\u0120Committee": 1674, "\u0120regular": 1675, "\u0120council": 1676, "\u0120cars": 1677, "\u0120Director": 1678, "\u0120judge": 1679, "\u0120victims": 1680, "\u0120Daily": 1681, "\u0120kept": 1682, "\u0120effect": 1683, "\u0120beyond": 1684, "pm": 1685, "\u0120talking": 1686, "\u0120considered": 1687, "ore": 1688, "\u0120Advertisement": 1689, "\u0120st": 1690, "ED": 1691, "\u0120middle": 1692, "\u0120raise": 1693, "we": 1694, "\u0120claimed": 1695, "ino": 1696, "\u0120alleged": 1697, "\u0120Pro": 1698, "\u0120Scott": 1699, "\u0120Oct": 1700, "\u0120consider": 1701, "\u0120Share": 1702, "\u0120traffic": 1703, "\u0120African": 1704, "\u0120couldn": 1705, "\u0120toward": 1706, "\u0120search": 1707, "But": 1708, "\u0120launch": 1709, "\u0120injured": 1710, "That": 1711, "\u0120although": 1712, "\u0120activities": 1713, "\u0120changed": 1714, "\u0120sources": 1715, "\u0120missing": 1716, "\u0120u": 1717, "\u012035": 1718, "\u0120cover": 1719, "ised": 1720, "\u0120|": 1721, "ow": 1722, "ES": 1723, "\u0120decades": 1724, "ich": 1725, "\u0120caused": 1726, "\u0120elections": 1727, "ane": 1728, "IS": 1729, "\u0120feet": 1730, "\u0120Bar": 1731, "\u0120version": 1732, "\u0120grow": 1733, "\u0120vehicles": 1734, "\u0120options": 1735, "\u0120individual": 1736, "\u0120environment": 1737, "\u0120Robert": 1738, "\u0120Valley": 1739, "\u0120From": 1740, "per": 1741, "ara": 1742, "\u0120systems": 1743, "\u0120protect": 1744, "\u0120King": 1745, "\u0120injuries": 1746, "\u0120finally": 1747, "\u0120nuclear": 1748, "40": 1749, "\u0120ratio": 1750, "\u0120gun": 1751, "\u0120Pakistan": 1752, "\u0120Management": 1753, "\u0120Air": 1754, "ce": 1755, "\u0120opposition": 1756, "ment": 1757, "ick": 1758, "\u0120pro": 1759, "\u0120act": 1760, "\u0120platform": 1761, "\u0120lack": 1762, "\u0120pair": 1763, "\u0120500": 1764, "\u0120calling": 1765, "ary": 1766, "\u0120programs": 1767, "\u0120scheduled": 1768, "\u0120fast": 1769, "\u0120joined": 1770, "\u0120War": 1771, "\u0120Editing": 1772, "\u0120Since": 1773, "\u0120Ryan": 1774, "\u0120Mac": 1775, "\u0120Big": 1776, "\u0120Lake": 1777, "\u0120digital": 1778, "When": 1779, "ue": 1780, "\u0120assets": 1781, "\u0120seeing": 1782, "\u0120Act": 1783, "\u0120partner": 1784, "\u0120Board": 1785, "\u0120beginning": 1786, "\u0120supply": 1787, "\u0120miles": 1788, "\u0120prison": 1789, "ons": 1790, "\u0120Americans": 1791, "ub": 1792, "\u0120Or": 1793, "me": 1794, "\u0120benefits": 1795, "\u0120benefit": 1796, "\u0120measures": 1797, "\u0120hear": 1798, "\u0120parties": 1799, "\u0120successful": 1800, "\u0120Just": 1801, "\u0120victim": 1802, "\u0120block": 1803, "\u0120limited": 1804, "\u0120trip": 1805, "\u0120People": 1806, "\u0120serve": 1807, "\u0120art": 1808, "ism": 1809, "\u0120wide": 1810, "\u0120Sch": 1811, "\u012080": 1812, "\u0120Thomas": 1813, "\u012090": 1814, "\u0120stocks": 1815, "\u0120girl": 1816, "\u0120Asia": 1817, "\u0120seeking": 1818, "\u0120certainly": 1819, "\u0120Services": 1820, "\u0120College": 1821, "\u0120communities": 1822, "\u0120extra": 1823, "\u01202010": 1824, "ness": 1825, "\u0120holding": 1826, "ous": 1827, "\u0120tough": 1828, "ade": 1829, "\u0120mobile": 1830, "\u0120owns": 1831, "\u0120Do": 1832, "\u0120Fire": 1833, "\u0120spoke": 1834, "\u0120returned": 1835, "\u0120size": 1836, "\u0120criminal": 1837, "\u0120Instagram": 1838, "\u0120offering": 1839, "\u0120God": 1840, "\u0120Service": 1841, "\u0120page": 1842, "her": 1843, "\u0120deep": 1844, "wood": 1845, "\u0120crime": 1846, "\u0120Sports": 1847, "ile": 1848, "\u0120Global": 1849, "\u0120proposed": 1850, "ain": 1851, "\u0120session": 1852, "\u0120Federal": 1853, "\u0120Syria": 1854, "\u0120ch": 1855, "\u0120threat": 1856, "\u0120allegations": 1857, "\u0120Republicans": 1858, "\u0120German": 1859, "\u0120strategy": 1860, "\u0120commercial": 1861, "ING": 1862, "\u0120Secretary": 1863, "Q": 1864, "\u0120reporters": 1865, "100": 1866, "\u0120Capital": 1867, "\u0120Both": 1868, "\u0120Post": 1869, "\u0120Israel": 1870, "\u0120save": 1871, "ts": 1872, "ill": 1873, "\u0120drop": 1874, "\u0120reserved": 1875, "\u0120Many": 1876, "\u0120avoid": 1877, "\u0120200": 1878, "iv": 1879, "\u0120damage": 1880, "\u0120condition": 1881, "\u0120dropped": 1882, "\u0120door": 1883, "\u0120planning": 1884, "ire": 1885, "\u0120card": 1886, "\u0120designed": 1887, "\u0120reduce": 1888, "AN": 1889, "\u0120Un": 1890, "ford": 1891, "\u0120Then": 1892, "\u0120pic": 1893, "\u0120Copyright": 1894, "\u0120rain": 1895, "\u0120Martin": 1896, "\u0120domestic": 1897, "45": 1898, "ge": 1899, "\u0120murder": 1900, "\u0120speech": 1901, "line": 1902, "\u0120helping": 1903, "\u0120planned": 1904, "\u0120feature": 1905, "ud": 1906, "\u0120type": 1907, "ham": 1908, "\u0120Public": 1909, "ja": 1910, "\u0120insurance": 1911, "\u0120attacks": 1912, "\u0120Corp": 1913, "\u0120forecast": 1914, "\u0120resources": 1915, "ma": 1916, "?\"": 1917, "\u0120Am": 1918, "\u0120Sept": 1919, "\u0120push": 1920, "\u0120attorney": 1921, "23": 1922, "\u0120emergency": 1923, "\u0120winner": 1924, "\u0120blood": 1925, "\u0120north": 1926, "\u0120Feb": 1927, "\u0120baby": 1928, "\u0120floor": 1929, "\u0120spend": 1930, "\u0120ex": 1931, "\u0120dollars": 1932, "\u0120unit": 1933, "\u0120Hill": 1934, "\u0120der": 1935, "\u0120About": 1936, "\u0120alone": 1937, "ization": 1938, "\u0120presidential": 1939, "\u0120activity": 1940, "\u0120THE": 1941, "ee": 1942, "ber": 1943, "\u0120Other": 1944, "\u0120owner": 1945, "\u0120hour": 1946, "\u0120cities": 1947, "\u0120answer": 1948, "ide": 1949, "\u0120fully": 1950, "ek": 1951, "ists": 1952, "\u0120coverage": 1953, "\u0120vs": 1954, "\u0120figure": 1955, "\u0120population": 1956, "org": 1957, "\u0120snow": 1958, "\u0120becoming": 1959, "\u0120Sam": 1960, "\u0120Carolina": 1961, "\u0120join": 1962, "\u0120profit": 1963, "\u0120items": 1964, "\u0120index": 1965, "\u0120analysis": 1966, "\u0120tournament": 1967, "\u0120stake": 1968, "\u0120perfect": 1969, "way": 1970, "\u0120band": 1971, "\u0120girls": 1972, "\u0120option": 1973, "\u0120plays": 1974, "oc": 1975, "\u0120providing": 1976, "\u00c3\u0143": 1977, "24": 1978, "\u0120wouldn": 1979, "\u0120ones": 1980, "\u0120declined": 1981, "\u0120written": 1982, "\u0120voters": 1983, "\u0120candidate": 1984, "\u0120suspect": 1985, "\u0120policies": 1986, "\u0120peace": 1987, "ast": 1988, "\u0120particular": 1989, "for": 1990, "\u0120hopes": 1991, "\u0120station": 1992, "\u0120Most": 1993, "\u0120speak": 1994, "\u0120River": 1995, "\u0120asking": 1996, "\u0120statements": 1997, "\u0120fifth": 1998, "ha": 1999, "\u0120Nigeria": 2000, "af": 2001, "\u0120explained": 2002, "\u0120bar": 2003, "\u0120housing": 2004, "\u0120Santa": 2005, "\u0120identified": 2006, "\u0120simple": 2007, "\u0120critical": 2008, "\u0120Club": 2009, "\u0120Security": 2010, "\u0120Like": 2011, "\u0120starts": 2012, "art": 2013, "\u0120street": 2014, "\u0120reality": 2015, "\u0120heavy": 2016, "\u0120progress": 2017, "\u0120showing": 2018, "\u0120challenges": 2019, "\u0120ban": 2020, "\u0120committed": 2021, "35": 2022, "\u00bb": 2023, "\u0120directly": 2024, "\u0120aren": 2025, "\u0120claim": 2026, "\u0120Western": 2027, "ind": 2028, "\u0120gives": 2029, "\u0120Saudi": 2030, "\u0120choice": 2031, "\u0120Th": 2032, "\u0120approved": 2033, "\u0120located": 2034, "\u0120arrived": 2035, "22": 2036, "\u0120caught": 2037, "\u0120professional": 2038, "\u0120missed": 2039, "\u0120culture": 2040, "\u0120Year": 2041, "\u0120Ohio": 2042, "\u0120Ltd": 2043, "\u0120Another": 2044, "\u0120seem": 2045, "\u0120believes": 2046, "\u0120believed": 2047, "\u0120character": 2048, "\u0120Aug": 2049, "red": 2050, "\u0120fine": 2051, "\u0120prior": 2052, "\u0120thinking": 2053, "\u0120http": 2054, "\u0120+": 2055, "\u0120zone": 2056, "\u0120putting": 2057, "\u0120crash": 2058, "\u0120Australian": 2059, "\u0120Ab": 2060, "\u0120focused": 2061, "\u0120REUTERS": 2062, "\u0120Fox": 2063, "\u0120Sp": 2064, "\u0120traditional": 2065, "\u0120analyst": 2066, "\u0120wait": 2067, "IT": 2068, "\u0120request": 2069, "ru": 2070, "ians": 2071, "ize": 2072, "\u0120finish": 2073, "\u0120laws": 2074, "\u0120ran": 2075, "ER": 2076, "\u0120south": 2077, "\u0120speed": 2078, "\u0120movement": 2079, "\u0120assault": 2080, "\u0120exchange": 2081, "\u0120appear": 2082, "\u0120Sun": 2083, "\u0120le": 2084, "\u0120maybe": 2085, "\u0120losing": 2086, "\u0120subject": 2087, "ive": 2088, "mer": 2089, "\u0120Business": 2090, "\u0120Bl": 2091, "\u0120appears": 2092, "\u0120advantage": 2093, "\u0120Lee": 2094, "ada": 2095, "\u0120Under": 2096, "\u0120prevent": 2097, "\u0120respect": 2098, "\u0120sex": 2099, "\u0120centre": 2100, "\u0120Joe": 2101, "ado": 2102, "\u0120table": 2103, "\u0120equipment": 2104, "\u0120fair": 2105, "\u0120tour": 2106, "\u012032": 2107, "\u0120Financial": 2108, "\u0120county": 2109, "\u0120devices": 2110, "\u0120customer": 2111, "\u0120infrastructure": 2112, "\u0120expectations": 2113, "\u0120facing": 2114, "\u0120upon": 2115, "\u0120cross": 2116, "\u0120Open": 2117, "AL": 2118, "\u0120quick": 2119, "\u0120attempt": 2120, "\u0120completed": 2121, "\u0120facility": 2122, "\u0120confidence": 2123, "\u0120Supreme": 2124, "\u0120piece": 2125, "our": 2126, "\u0120places": 2127, "\u0120sometimes": 2128, "\u0120poor": 2129, "\u0120storm": 2130, "\u0120hot": 2131, "\u0120affected": 2132, "na": 2133, "\u0120abuse": 2134, "\u0120Ms": 2135, "\u0120word": 2136, "over": 2137, "\u0120brother": 2138, "\u0120necessary": 2139, "\u0120eventually": 2140, "\u0120Star": 2141, "\u0120send": 2142, "\u0120boy": 2143, "\u0120Rs": 2144, "\u0120remember": 2145, "21": 2146, "\u0120climate": 2147, "\u0120capacity": 2148, "\u0120responsible": 2149, "\u0120Matt": 2150, "month": 2151, "\u0120suffered": 2152, "%.": 2153, "og": 2154, "\u0120Peter": 2155, "\u0120,": 2156, "\u0120feeling": 2157, "ze": 2158, "\u0120buying": 2159, "oy": 2160, "ij": 2161, "\u0120bought": 2162, "\u0120actions": 2163, "\u0120owned": 2164, "\u0120___": 2165, "\u0120physical": 2166, "\u0120specific": 2167, "\u0120battle": 2168, "\u0120Energy": 2169, "\u0120picture": 2170, "\u0120active": 2171, "\u0120individuals": 2172, "\u0120guy": 2173, "\u0120regional": 2174, "\u0120bond": 2175, "ows": 2176, "\u0120Toronto": 2177, "\u0120rule": 2178, "\u0120develop": 2179, "\u0120crowd": 2180, "\u0120guilty": 2181, "\u0120female": 2182, "\u0120selling": 2183, "\u0120Follow": 2184, "\u0120myself": 2185, "ata": 2186, "\u0120device": 2187, "\u0120reasons": 2188, "\u0120records": 2189, "\u0120fighting": 2190, "ON": 2191, "ities": 2192, "\u0120Home": 2193, "\u0120status": 2194, "\u0120plant": 2195, "\u0120drugs": 2196, "\u0120Church": 2197, "\u0120completely": 2198, "\u0120disease": 2199, "\u0120highly": 2200, "\u0120Paris": 2201, "\u0120decade": 2202, "\u0120owners": 2203, "\u0120wall": 2204, "\u0120camp": 2205, "\u0120Steve": 2206, "\u0120reporting": 2207, "\u0120earned": 2208, "\u0120Images": 2209, "\u0120existing": 2210, "\u0120Sen": 2211, "\u0120concern": 2212, "\u0120hundreds": 2213, "\u0120song": 2214, "\u0120knows": 2215, "\u0120unique": 2216, "\u0120lose": 2217, "\u0120Kh": 2218, "\u0120approximately": 2219, "\u0120haven": 2220, "\u0120park": 2221, "\u0120independent": 2222, "\u0120Although": 2223, "\u0120Andrew": 2224, "\u0120paper": 2225, "\u0120developed": 2226, "\u0120rising": 2227, "\u0120direct": 2228, "\u0120purchase": 2229, "\u0120exactly": 2230, "\u0120q": 2231, "\u0120massive": 2232, "\u0120box": 2233, "\u0120champion": 2234, "\u0120Clinton": 2235, "\u0120voice": 2236, "\u0120arrest": 2237, "\u0120Korean": 2238, "\u0120learning": 2239, "\u0120Virginia": 2240, "\u0120sa": 2241, "\u0120par": 2242, "\u0120chairman": 2243, "\u0120agencies": 2244, "\u0120healthy": 2245, "\u0120Those": 2246, "\u0120powerful": 2247, "\u012045": 2248, "\u0120difference": 2249, "\u0120Jackson": 2250, "\u0120enforcement": 2251, "\u0120dividend": 2252, "qu": 2253, "\u0120enjoy": 2254, "\u0120ruling": 2255, "\u0120ongoing": 2256, "\u0120software": 2257, "ks": 2258, "\u0120location": 2259, "\u0120mostly": 2260, "\u0120candidates": 2261, "men": 2262, "\u0120broke": 2263, "What": 2264, "\u0120Br": 2265, "\u01202008": 2266, "\u0120consumer": 2267, "\u0120discuss": 2268, "\u0120di": 2269, "\u0120primary": 2270, "\u0120En": 2271, "\u0120green": 2272, "\u0120concerned": 2273, "\u0120image": 2274, "\u0120Premier": 2275, "\u0120Meanwhile": 2276, "\u0120fired": 2277, "\u0120Boston": 2278, "ann": 2279, "\u0120camera": 2280, "\u0120traded": 2281, "\u0120hasn": 2282, "\u0120excited": 2283, "\u0120increasing": 2284, "\u0120Despite": 2285, "\u0120citizens": 2286, "\u0120euro": 2287, "\u0120reportedly": 2288, "\u0120minute": 2289, "\u0120Will": 2290, "\u0120LLC": 2291, "\u0120sp": 2292, "\u0120Michigan": 2293, "\u0120stopped": 2294, "\u0120eye": 2295, "\u0120denied": 2296, "\u0120modern": 2297, "\u0120Wall": 2298, "\u0120definitely": 2299, "point": 2300, "\u0120lines": 2301, "\u0120politics": 2302, "\u0120hotel": 2303, "\u0120retail": 2304, "\u0120stated": 2305, "\u0120Over": 2306, "\u0120grew": 2307, "\u0120broadcast": 2308, "\u0120legislation": 2309, "\u0120fresh": 2310, "\u0120bid": 2311, "\u0120managed": 2312, "\u0120society": 2313, "\u0120scoring": 2314, "\u0120Get": 2315, "\u0120intelligence": 2316, "\u0120holiday": 2317, "\u0120governor": 2318, "\u0120estimated": 2319, "\u0120experts": 2320, "\u0120Jeff": 2321, "\u0120struck": 2322, "\u0120hits": 2323, "\u0120carry": 2324, "\u0120placed": 2325, "\u0120stores": 2326, "\u0120expressed": 2327, "\u0120valued": 2328, "\u0120ad": 2329, "\u0120twice": 2330, "ala": 2331, "\u0120display": 2332, "\u0120usually": 2333, "\u0120responded": 2334, "\u0120dog": 2335, "AS": 2336, "\u0120Fed": 2337, "\u01202009": 2338, "\u0120documents": 2339, "\u0120normal": 2340, "\u0120train": 2341, "\u0120fl": 2342, "\u0120shown": 2343, "\u0120Ed": 2344, "\u0120sort": 2345, "\u0120allegedly": 2346, "\u0120shots": 2347, "ka": 2348, "\u0120accounts": 2349, "\u0120yesterday": 2350, "\u0120creating": 2351, "\u0120church": 2352, "\u0120bus": 2353, "\u0120award": 2354, "\u0120equity": 2355, "\u0120photos": 2356, "\u012033": 2357, "\u0120fiscal": 2358, "je": 2359, "\u0120consumers": 2360, "\u0120Manchester": 2361, "no": 2362, "\u0120Kevin": 2363, "\u0120gain": 2364, "\u0120corporate": 2365, "\u0120civil": 2366, "\u0120Middle": 2367, "ally": 2368, "\u0120sound": 2369, "\u0120English": 2370, "IC": 2371, "\u0120winds": 2372, "\u0120worst": 2373, "\u0120Grand": 2374, "\u0120effective": 2375, "\u0120Island": 2376, "\u0120drivers": 2377, "\u0120fan": 2378, "pe": 2379, "\u0120sides": 2380, "\u0120Go": 2381, "\u0120clean": 2382, "\u00e2\u0122\u0135": 2383, "\u0120television": 2384, "\u0120Jr": 2385, "\u0120allows": 2386, "My": 2387, "\u0120greater": 2388, "ance": 2389, "\u0120decisions": 2390, "\u0120restaurant": 2391, "\u0120Hospital": 2392, "\u0120Tr": 2393, "\u0120balance": 2394, "\u0120mph": 2395, "\u0120keeping": 2396, "\u0120seconds": 2397, "\u0120weapons": 2398, "ert": 2399, "\u0120pain": 2400, "ass": 2401, "\u0120steps": 2402, "ger": 2403, "\u0120Brexit": 2404, "\u0120remaining": 2405, "\u0120bringing": 2406, "ure": 2407, "\u0120weight": 2408, "And": 2409, "\u0120writing": 2410, "Photo": 2411, "\u0120Christian": 2412, "ob": 2413, "\u0120sport": 2414, "\u0120figures": 2415, "\u0120trust": 2416, "\u0120skills": 2417, "\u0120seat": 2418, "\u0120faces": 2419, "ck": 2420, "\u0120born": 2421, "\u0120super": 2422, "\u0120fuel": 2423, "\u0120del": 2424, "\u0120meant": 2425, "ica": 2426, "\u0120justice": 2427, "\u0120spring": 2428, "\u0120killing": 2429, "\u0120negative": 2430, "\u0120Richard": 2431, "\u0120und": 2432, "\u0120factors": 2433, "\u0120signs": 2434, "\u0120learned": 2435, "\u0120Game": 2436, "\u0120audience": 2437, "\u0120deliver": 2438, "\u0120illegal": 2439, "\u0120blue": 2440, "\u0120screen": 2441, "\u0120remained": 2442, "\u0120announcement": 2443, "IN": 2444, "\u0120waiting": 2445, "\u0120thanks": 2446, "\u0120immigration": 2447, "\u0120FBI": 2448, "\u0120warned": 2449, "\u0120measure": 2450, "\u0120draw": 2451, "\u0120positions": 2452, "\u0120debut": 2453, "\u0120Media": 2454, "\u0120allowing": 2455, "air": 2456, "hen": 2457, "\u0120mark": 2458, "ys": 2459, "\u0120prepared": 2460, "\u0120Vegas": 2461, "ep": 2462, "ice": 2463, "2018": 2464, "\u0120defensive": 2465, "60": 2466, "\u0120Beach": 2467, "\u0120pulled": 2468, "\u00a3": 2469, "\u0120lawyer": 2470, "\u0120cast": 2471, "\u0120solution": 2472, "\u0120eyes": 2473, "\u0120marketing": 2474, "\u0120Foundation": 2475, "\u0120risks": 2476, "\u0120Today": 2477, "za": 2478, "\u0120draft": 2479, "\u0120ice": 2480, "26": 2481, "\u0120Har": 2482, "\u0120Executive": 2483, "\u0120truck": 2484, "ions": 2485, "\u0120Your": 2486, "\u0120Ireland": 2487, "\u0120Jim": 2488, "\u0120ha": 2489, "\u0120fear": 2490, "\u012036": 2491, "UR": 2492, "\u0120Ford": 2493, "\u0120watching": 2494, "ien": 2495, "\u0120style": 2496, "\u0120Good": 2497, "\u0120wearing": 2498, "\u0120Houston": 2499, "\u0120onto": 2500, "\u0120boost": 2501, "\u0120application": 2502, "\u0120Dan": 2503, "\u0120spread": 2504, "\u0120Davis": 2505, "\u0120strike": 2506, "els": 2507, "\u0120wind": 2508, "\u0120interested": 2509, "\u0120guard": 2510, "\u0120mission": 2511, "\u0120yourself": 2512, "\u0120operation": 2513, "\u0120larger": 2514, "She": 2515, "\u0120seasons": 2516, "28": 2517, "27": 2518, "\u0120respond": 2519, "ci": 2520, "\u0120Centre": 2521, "Our": 2522, "\u0120names": 2523, "\u0120flight": 2524, "\u0120quarterback": 2525, "\u0120standard": 2526, "so": 2527, "\u0120suggested": 2528, "\u0120Mal": 2529, "\u0120older": 2530, "ini": 2531, "\u0120perhaps": 2532, "ont": 2533, "\u0120Institute": 2534, "\u0120millions": 2535, "\u0120mental": 2536, "\u00c3\u0124": 2537, "ga": 2538, "\u0120clients": 2539, "\u0120please": 2540, "\u0120loan": 2541, "\u0120aware": 2542, "ft": 2543, "int": 2544, "75": 2545, "05": 2546, "AY": 2547, "\u0120Out": 2548, "\u0120hair": 2549, "ied": 2550, "\u0120seemed": 2551, "ene": 2552, "ty": 2553, "NYSE": 2554, "\u0120offensive": 2555, "\u0120taxes": 2556, "\u0120initial": 2557, "ren": 2558, "\u0120separate": 2559, "la": 2560, "\u0120Miami": 2561, "AC": 2562, "\u0120clearly": 2563, "\u0120fit": 2564, "\u0120Coast": 2565, "\u0120firms": 2566, "\u0120partners": 2567, "\u0120upcoming": 2568, "\u0120cold": 2569, "\u0120proposal": 2570, "AT": 2571, "\u0120shut": 2572, "\u0120Community": 2573, "\u0120nature": 2574, "\u0120Sal": 2575, "\u0120bottom": 2576, "ting": 2577, "\u0120Click": 2578, "\u0120nice": 2579, "ets": 2580, "\u0120hurt": 2581, "itt": 2582, "ama": 2583, "\u0120carried": 2584, "\u0120Con": 2585, "rd": 2586, "\u0120estate": 2587, "\u0120Las": 2588, "\u0120Law": 2589, "ng": 2590, "\u0120protection": 2591, "\u0120produce": 2592, "\u0120currency": 2593, "\u0120happens": 2594, "\u0120Per": 2595, "ney": 2596, "\u0120Long": 2597, "\u0120fellow": 2598, "\u0120cuts": 2599, "\u0120reading": 2600, "ano": 2601, "\u0120proud": 2602, "ost": 2603, "\u0120UN": 2604, "\u0120Arizona": 2605, "AD": 2606, "\u0120helps": 2607, "\u0120winter": 2608, "\u0120finding": 2609, "\u0120Gold": 2610, "att": 2611, "\u0120Why": 2612, "\u0120basketball": 2613, "lin": 2614, "\u0120Can": 2615, "\u0120Bowl": 2616, "ial": 2617, "\u0120Alex": 2618, "200": 2619, "AM": 2620, "\u0120presence": 2621, "\u0120produced": 2622, "\u0120developing": 2623, "\u0120regarding": 2624, "\u0120debate": 2625, "\u0120vice": 2626, "\u0120Italy": 2627, "\u0120su": 2628, "its": 2629, "ator": 2630, "\u012034": 2631, "\u0120complex": 2632, "\u0120presented": 2633, "\u0120researchers": 2634, "\u0120slow": 2635, "ya": 2636, "\u0120sanctions": 2637, "\u0120loved": 2638, "\u0120seek": 2639, "\u0120responsibility": 2640, "\u0120admitted": 2641, "\u0120album": 2642, "\u0120solutions": 2643, "\u0120facilities": 2644, "ett": 2645, "\u0120Gu": 2646, "\u0120Well": 2647, "\u0120lawmakers": 2648, "\u0120miss": 2649, "ful": 2650, "\u0120Nick": 2651, "'.": 2652, "\u0120feels": 2653, "\u0120prime": 2654, "\u0120knowledge": 2655, "\u0120deals": 2656, "\u0120Taylor": 2657, "\u0120survey": 2658, "\u0120Francisco": 2659, "\u0120joint": 2660, "\u0120whom": 2661, "\u0120sit": 2662, "01": 2663, "\u0120tr": 2664, "\u0120organizations": 2665, "\u0120Avenue": 2666, "\u0120Their": 2667, "\u0120Tim": 2668, "\u0120rally": 2669, "game": 2670, "\u0120bigger": 2671, "\u0120lawsuit": 2672, "\u0120recorded": 2673, "\u0120favorite": 2674, "yard": 2675, "\u0120transaction": 2676, "\u0120qu": 2677, "oh": 2678, "\u0120interesting": 2679, "\u0120inflation": 2680, "ath": 2681, "\u0120stuff": 2682, "\u0120industrial": 2683, "ico": 2684, "TS": 2685, "\u0120speaking": 2686, "\u0120losses": 2687, "ID": 2688, "\u0120Stadium": 2689, "\u0120stars": 2690, "\u0120Women": 2691, "\u0120Blue": 2692, "\u0120wins": 2693, "\u0120des": 2694, "\u0120competitive": 2695, "ters": 2696, "\u0120pounds": 2697, "\u0120direction": 2698, "\u0120innings": 2699, "\u0120Best": 2700, "\u0120actor": 2701, "\u0120dangerous": 2702, "\u0120require": 2703, "\u0120plus": 2704, "\u0120solid": 2705, "\u0120generation": 2706, "\u0120strength": 2707, "\u0120Mary": 2708, "For": 2709, "\u0120plenty": 2710, "\u0120Team": 2711, "\u0120influence": 2712, "\u0120faced": 2713, "\u0120es": 2714, "\u0120Islamic": 2715, "let": 2716, "\u0120Development": 2717, "\u0120path": 2718, "\u0120youth": 2719, "\u0120commitment": 2720, "\u0120beautiful": 2721, "\u0120Jack": 2722, "ort": 2723, "\u0120ten": 2724, "\u0120attend": 2725, "ars": 2726, "\u00c3\u00b3n": 2727, "\u0120views": 2728, "\u0120euros": 2729, "\u0120author": 2730, "\u0120core": 2731, "\u0120supporters": 2732, "\u0120iPhone": 2733, "\u0120fashion": 2734, "\u0120smaller": 2735, "\u0120elected": 2736, "\u0120university": 2737, "\u0120picked": 2738, "wa": 2739, "\u0120ordered": 2740, "\u0120Sc": 2741, "\u0120\u00c5": 2742, "\u0120largely": 2743, "+": 2744, "\u0120Attorney": 2745, "\u0120paying": 2746, "AR": 2747, "\u0120connection": 2748, "\u0120setting": 2749, "\u0120na": 2750, "\u0120Rock": 2751, "\u0120recovery": 2752, "ew": 2753, "\u0120serving": 2754, "\u0120surprise": 2755, "\u0120occurred": 2756, "\u0120division": 2757, "\u0120telling": 2758, "\u0120margin": 2759, "\u01202020": 2760, "\u0120sister": 2761, "\u0120NBA": 2762, "\u0120voted": 2763, "\u0120con": 2764, "By": 2765, "\u012049": 2766, "\u0120foot": 2767, "\u00c3\u00bc": 2768, "\u0120Turkey": 2769, "\u0120amazing": 2770, "\u0120combined": 2771, "\u0120appearance": 2772, "\u0120easily": 2773, "DAY": 2774, "\u0120notes": 2775, "\u0120Start": 2776, "\u0120language": 2777, "\u0120extremely": 2778, "\u0120cloudy": 2779, "\u0120Let": 2780, "\u0120delivered": 2781, "\u0120improved": 2782, "\u0120collection": 2783, "\u0120PM": 2784, "\u0120estimates": 2785, "\u0120boys": 2786, "izing": 2787, "\u0120text": 2788, "\u0120closer": 2789, "\u0120protest": 2790, "\u0120province": 2791, "\u0120shop": 2792, "\u0120smart": 2793, "de": 2794, "\u0120Sheriff": 2795, "EN": 2796, "\u0120corner": 2797, "\u0120panel": 2798, "\u0120books": 2799, "\u0120supported": 2800, "\u0120mentioned": 2801, "ver": 2802, "\u0120Ministry": 2803, "\u0120Prince": 2804, "\u0120USA": 2805, "\u0120receiving": 2806, "\u0120choose": 2807, "\u0120IN": 2808, "\u0120Spain": 2809, "\u0120section": 2810, "\u0120considering": 2811, "\u0120Cor": 2812, "\u0120wish": 2813, "\u0120welcome": 2814, "\u0120Conference": 2815, "ere": 2816, "\u0120Officer": 2817, "\u0120hoping": 2818, "\u0120portfolio": 2819, "\u0120standards": 2820, "\u0120grand": 2821, "\u0120Real": 2822, "\u0120secure": 2823, "\u0120Corporation": 2824, "\u0120Rep": 2825, "\u0120Kelly": 2826, "\u0120streets": 2827, "\u0120sitting": 2828, "\u0120slightly": 2829, "\u0120Investment": 2830, "99": 2831, "ond": 2832, "\u0120units": 2833, "\u0120votes": 2834, "\u0120segment": 2835, "\u0120championship": 2836, "\u0120squad": 2837, "iting": 2838, "ron": 2839, "\u00ae": 2840, "\u0120em": 2841, "\u0120touch": 2842, "\u012038": 2843, "\u0120ceremony": 2844, "\u0120decide": 2845, "\u0120approval": 2846, "So": 2847, "\u0120Port": 2848, "\u0120sub": 2849, "\u0120sc": 2850, "\u0120rep": 2851, "\u0120Week": 2852, "\u0120upper": 2853, "\u0120agree": 2854, "ny": 2855, "\u0120matches": 2856, "ics": 2857, "\u0120tweeted": 2858, "\u0120heat": 2859, "\u0120Great": 2860, "\u0120penalty": 2861, "\u0120mass": 2862, "\u0120alongside": 2863, "\u0120herself": 2864, "berg": 2865, "\u0120science": 2866, "\u0120entered": 2867, "\u0120appeal": 2868, "\u0120Pr": 2869, "\u0120file": 2870, "che": 2871, "\u0120Report": 2872, "\u0120Three": 2873, "\u0120Northern": 2874, "\u0120Jordan": 2875, "\u0120amid": 2876, "\u0120pace": 2877, "\u0120jail": 2878, "\u0120finance": 2879, "\u0120Young": 2880, "32": 2881, "\u0120willing": 2882, "\u0120conduct": 2883, "\u0120Par": 2884, "\u0120established": 2885, "\u0120returns": 2886, "\u0120aid": 2887, "\u0120internet": 2888, "IA": 2889, "29": 2890, "\u0120meetings": 2891, "\u0120warning": 2892, "\u0120Cl": 2893, "\u0120campus": 2894, "Most": 2895, "\u0120Fund": 2896, "\u0120William": 2897, "\u0120Japanese": 2898, "\u0120consensus": 2899, "\u0120brain": 2900, "!\"": 2901, "\u0120poll": 2902, "\u0120tech": 2903, "\u0120trend": 2904, "\u0120potentially": 2905, "\u0120reduced": 2906, "\u0120Show": 2907, "\u012037": 2908, "\u0120happening": 2909, "\u0120Brazil": 2910, "pl": 2911, "\u0120Cal": 2912, "\u0120covered": 2913, "\u0120enter": 2914, "TV": 2915, "\u0120catch": 2916, "foot": 2917, "\u0120union": 2918, "\u0120expansion": 2919, "\u0120Singapore": 2920, "\u0120Detroit": 2921, "\u0120attended": 2922, "ats": 2923, "\u0120newspaper": 2924, "\u0120Division": 2925, "news": 2926, "\u0120cap": 2927, "\u0120removed": 2928, "\u012048": 2929, "\u0120Royal": 2930, "\u0120window": 2931, "\u0120parking": 2932, "\u0120dark": 2933, "\u0120standing": 2934, "\u0120update": 2935, "\u0120agent": 2936, "\u0120transfer": 2937, "\u0120Army": 2938, "\u0120uses": 2939, "80": 2940, "\u0120Te": 2941, "\u0120introduced": 2942, "\u0120male": 2943, "\u0120Southern": 2944, "\u0120ratings": 2945, "\u0120island": 2946, "\u0120Miller": 2947, "\u0120teachers": 2948, "\u0120advice": 2949, "\u0120familiar": 2950, "uf": 2951, "\u0120sought": 2952, "\u0120por": 2953, "\u0120Eric": 2954, "\u0120da": 2955, "\u0120ideas": 2956, "uh": 2957, "\u0120sixth": 2958, "\u0120talent": 2959, "\u0120Image": 2960, "ering": 2961, "run": 2962, "ments": 2963, "\u0120conducted": 2964, "300": 2965, "\u0120urged": 2966, "\u0120discovered": 2967, "\u0120pl": 2968, "\u0120understanding": 2969, "\u0120offense": 2970, "\u0120secretary": 2971, "\u0120sk": 2972, "\u0120loans": 2973, "\u0120Gr": 2974, "\u0120applications": 2975, "\u0120crude": 2976, "go": 2977, "\u0120Instead": 2978, "\u0120opinion": 2979, "\u0120doubt": 2980, "ey": 2981, "\u0120dis": 2982, "31": 2983, "\u0120experienced": 2984, "\u0120leg": 2985, "\u0120Cleveland": 2986, "ven": 2987, "\u0120failure": 2988, "market": 2989, "ack": 2990, "\u0120decline": 2991, "\u0120changing": 2992, "\u0120300": 2993, "\u0120defence": 2994, "\u0120Brian": 2995, "\u0120delivery": 2996, "\u0120married": 2997, "\u0120declared": 2998, "\u0120pull": 2999, "\u0120limit": 3000, "\u0120MORE": 3001, "\u0120defeat": 3002, "\u0120expand": 3003, "\u0120Colorado": 3004, "\u0120Rob": 3005, "iss": 3006, "\u0120worse": 3007, "\u0120perform": 3008, "ising": 3009, "\u01202007": 3010, "\u0120Del": 3011, "\u0120surgery": 3012, "\u0120easier": 3013, "\u0120maintain": 3014, "\u0120Ex": 3015, "\u0120tied": 3016, "\u0120east": 3017, "\u0120user": 3018, "ola": 3019, "\u0120programme": 3020, "\u0120manufacturing": 3021, "\u0120hitting": 3022, "\u0120x": 3023, "\u0120skin": 3024, "\u0120artist": 3025, "\u0120tells": 3026, "\u0120nearby": 3027, "\u0120Daniel": 3028, "\u0120Power": 3029, "\u0120determined": 3030, "\u0120actual": 3031, "\u0120treated": 3032, "\u0120lived": 3033, "\u0120computer": 3034, "\u0120cool": 3035, "oo": 3036, "\u0120Pl": 3037, "\u0120effects": 3038, "\u0120environmental": 3039, "\u0120Morgan": 3040, "\u0120flow": 3041, "\u0120achieve": 3042, "\u0120Bell": 3043, "\u0120testing": 3044, "\u0120Bob": 3045, "\u0120whatever": 3046, "\u0120Because": 3047, "US": 3048, "\u0120Hollywood": 3049, "\u0120conflict": 3050, "\u0120walking": 3051, "\u0120Judge": 3052, "\u0120Alabama": 3053, "\u0120aircraft": 3054, "\u0120te": 3055, "well": 3056, "\u0120goods": 3057, "\u0120identify": 3058, "\u0120associated": 3059, "\u0120Ver": 3060, "\u0120Education": 3061, "\u0120airport": 3062, "IL": 3063, "\u0120falling": 3064, "\u0120giant": 3065, "\u0120Ma": 3066, "\u0120Medical": 3067, "\u0120ride": 3068, "\u0120den": 3069, "\u00ba": 3070, "\u0120Jose": 3071, "\u0120west": 3072, "\u0120Pacific": 3073, "\u0120visitors": 3074, "\u0120Watch": 3075, "\u0120Nations": 3076, "\u0120gains": 3077, "\u0120schedule": 3078, "34": 3079, "\u0120Exchange": 3080, "\u0120payments": 3081, "\u0120II": 3082, "70": 3083, "No": 3084, "\u0120Syrian": 3085, "\u0120Adam": 3086, "\u0120ne": 3087, "\u0120partnership": 3088, "\u0120bl": 3089, "\u0120Georgia": 3090, "\u0120sites": 3091, "\u0120models": 3092, "\u0120degree": 3093, "\u0120determine": 3094, "\u0120Wilson": 3095, "\u0120contest": 3096, "\u0120professor": 3097, "\u0120Chelsea": 3098, "\u0120meaning": 3099, "\u0120Games": 3100, "\u0120Trust": 3101, "\u0120Asian": 3102, "33": 3103, "\u0120link": 3104, "\u0120Up": 3105, "\u0120holds": 3106, "\u0120Top": 3107, "\u0120Italian": 3108, "ord": 3109, "\u0120Kansas": 3110, "\u0120farmers": 3111, "\u0120extended": 3112, "\u0120birth": 3113, "\u0120reform": 3114, "\u0120relations": 3115, "\u0120write": 3116, "\u0120supporting": 3117, "55": 3118, "ita": 3119, "\u0120notice": 3120, "ster": 3121, "\u0120animals": 3122, "\u0120Jersey": 3123, "\u0120arm": 3124, "\u0120Foreign": 3125, "\u0120Life": 3126, "\u0120truly": 3127, "\u0120Once": 3128, "\u0120Mayor": 3129, "\u0120Free": 3130, "\u0120Agency": 3131, "\u0120Wood": 3132, "\u0120passing": 3133, "DA": 3134, "\u012052": 3135, "\u0120moves": 3136, "\u0120com": 3137, "house": 3138, "\u0120Its": 3139, "\u0120marijuana": 3140, "ines": 3141, "\u0120veteran": 3142, "\u0120variety": 3143, "ki": 3144, "ff": 3145, "amb": 3146, "\u0120listed": 3147, "\u0120pushed": 3148, "\u0120volume": 3149, "\u0120increasingly": 3150, "\u0120kick": 3151, "\u0120rock": 3152, "ank": 3153, "\u0120fees": 3154, "\u0120enable": 3155, "\u0120images": 3156, "\u0120truth": 3157, "\u0120ministry": 3158, "\u0120rare": 3159, "\u0120Dallas": 3160, "\u0120Minnesota": 3161, "\u0120contributed": 3162, "\u0120Charles": 3163, "\u0120percentage": 3164, "\u0120technical": 3165, "\u0120App": 3166, "\u0120assistant": 3167, "\u0120interests": 3168, "\u0120immediate": 3169, "38": 3170, "\u0120Town": 3171, "\u0120closing": 3172, "\u0120Anthony": 3173, "\u0120southern": 3174, "ase": 3175, "\u0120Putin": 3176, "\u0120Force": 3177, "ba": 3178, "\u0120refused": 3179, "\u0120Still": 3180, "ix": 3181, "\u0120Col": 3182, "\u0120materials": 3183, "\u0120structure": 3184, "\u0120driven": 3185, "\u0120patient": 3186, "\u0120broken": 3187, "\u0120radio": 3188, "\u0120scale": 3189, "\u0120replace": 3190, "\u012039": 3191, "\u0120Land": 3192, "\u0120deputy": 3193, "und": 3194, "\u0120color": 3195, "OS": 3196, "\u0120roads": 3197, "\u0120corruption": 3198, "\u0120Rose": 3199, "\u0120employee": 3200, "\u0120Water": 3201, "\u0120seats": 3202, "\u0120walked": 3203, "ec": 3204, "\u0120cents": 3205, "\u0120chain": 3206, "\u0120payment": 3207, "\u0120Android": 3208, "eb": 3209, "\u0120commission": 3210, "\u0120throw": 3211, "\u0120count": 3212, "\u0120accident": 3213, "\u0120expensive": 3214, "ered": 3215, "\u0120Yes": 3216, "\u0120Louis": 3217, "\u0120studies": 3218, "\u0120investigating": 3219, "\u0120century": 3220, "\u0120discussion": 3221, "\u0120inter": 3222, "DAQ": 3223, "\u0120Before": 3224, "\u0120initially": 3225, "*": 3226, "\u0120investments": 3227, "\u0120multi": 3228, "\u0120tight": 3229, "\u0120confident": 3230, "\u0120counter": 3231, "\u0120Qu": 3232, "\u0120governments": 3233, "\u0120armed": 3234, "\u0120suit": 3235, "\u0120row": 3236, "\u0120locations": 3237, "\u0120episode": 3238, "itch": 3239, "\u0120younger": 3240, "\u0120festival": 3241, "\u0120pitch": 3242, "\u0120OF": 3243, "\u0120talked": 3244, "ca": 3245, "\u0120protests": 3246, "\u0120targets": 3247, "90": 3248, "\u0120originally": 3249, "\u0120singer": 3250, "\u0120journey": 3251, "ug": 3252, "\u0120apply": 3253, "\u0120teacher": 3254, "\u0120chances": 3255, "):": 3256, "\u0120deaths": 3257, "isation": 3258, "\u0120Stephen": 3259, "\u0120code": 3260, "\u0120Championship": 3261, "\u0120Jason": 3262, "\u0120AT": 3263, "\u0120accept": 3264, "\u0120Series": 3265, "\u0120values": 3266, "\u0120bed": 3267, "\u0120Harry": 3268, "\u0120flat": 3269, "\u0120tools": 3270, "\u0120publicly": 3271, "37": 3272, "\u0120pointed": 3273, "\u0120Golden": 3274, "ps": 3275, "\u0120unable": 3276, "ants": 3277, "\u0120estimate": 3278, "\u0120warm": 3279, "\u0120basic": 3280, "ern": 3281, "\u0120raising": 3282, "\u0120Related": 3283, "\u0120ultimately": 3284, "\u0120northern": 3285, "\u0120plane": 3286, "\u0120Vice": 3287, "\u0120Raj": 3288, "\u0120Justin": 3289, "anc": 3290, "\u0120brings": 3291, "\u0120Art": 3292, "OT": 3293, "\u0120shift": 3294, "\u0120BBC": 3295, "\u0120Su": 3296, "BS": 3297, "\u0120bag": 3298, "\u0120doctor": 3299, "\u0120fill": 3300, "\u0120downtown": 3301, "\u0120possibility": 3302, "\u0120Ag": 3303, "\u0120est": 3304, "44": 3305, "\u0120struggling": 3306, "\u0120linked": 3307, "\u0120tickets": 3308, "\u0120Jay": 3309, "\u0120Call": 3310, "\u0120stands": 3311, "\u0120wedding": 3312, "\u0120resident": 3313, "eng": 3314, "\u0120leads": 3315, "\u0120advance": 3316, "\u0120Atlanta": 3317, "\u0120tie": 3318, "\u0120advanced": 3319, "pt": 3320, "burg": 3321, "\u0120Earlier": 3322, "\u0120Sw": 3323, "\u0120Zealand": 3324, "\u0120exercise": 3325, "\u0120AM": 3326, "\u0120affect": 3327, "\u0120possession": 3328, "\u0120involving": 3329, "\u012042": 3330, "\u0120writer": 3331, "\u0120Beijing": 3332, "\u0120doctors": 3333, "\u0120obviously": 3334, "\u0120er": 3335, "\u0120Olympic": 3336, "\u012075": 3337, "\u0120Khan": 3338, "\u0120Fort": 3339, "app": 3340, "like": 3341, "\u0120sea": 3342, "ock": 3343, "\u0120mix": 3344, "\u0120Iraq": 3345, "\u0120Muslim": 3346, "\u0120Finally": 3347, "\u0120continuing": 3348, "\u0120pr": 3349, "\u0120Ke": 3350, "\u0120Joseph": 3351, "\u0120expects": 3352, "\u0120institutions": 3353, "\u0120conservative": 3354, "own": 3355, "\u0120Chairman": 3356, "\u0120returning": 3357, ".-": 3358, "\u0120stood": 3359, "\u0120vision": 3360, "ess": 3361, "\u0120adults": 3362, "\u0120yield": 3363, "\u0120prove": 3364, "\u0120orders": 3365, "\u0120dream": 3366, "36": 3367, "related": 3368, "\u0120sl": 3369, "\u0120everybody": 3370, "ui": 3371, "\u0120represents": 3372, "\u0120discussed": 3373, "\u0120becomes": 3374, "\u0120village": 3375, "CC": 3376, "\u0120negotiations": 3377, "\u0120Philadelphia": 3378, "\u0120celebrate": 3379, "\u0120farm": 3380, "\u00c3\u00a7": 3381, "\u0120registered": 3382, "\u0120Governor": 3383, "OL": 3384, "\u0120Mon": 3385, "\u0120filing": 3386, "04": 3387, "SE": 3388, "\u0120Assembly": 3389, "\u0120actress": 3390, "\u0120si": 3391, "\u0120thank": 3392, "\u0120heading": 3393, "\u0120Who": 3394, "\u0120famous": 3395, "\u0120consecutive": 3396, "\u0120marriage": 3397, "ette": 3398, "NAS": 3399, "acks": 3400, "\u0120Please": 3401, "\u0120Diego": 3402, "\u0120baseball": 3403, "\u0120Moore": 3404, "\u0120ties": 3405, "\u0120carrying": 3406, "que": 3407, "\u0120turning": 3408, "\u0120McC": 3409, "\u0120Ken": 3410, "OR": 3411, "\u0120Stock": 3412, "\u0120buildings": 3413, "49": 3414, "\u0120Van": 3415, "39": 3416, "\u0120Seattle": 3417, "\u0120wild": 3418, "\u0120crew": 3419, "\u0120route": 3420, "\u0120Time": 3421, "\u0120tonight": 3422, "\u0120moments": 3423, "\u0120videos": 3424, "\u0120internal": 3425, "\u0120Liverpool": 3426, "port": 3427, "\u0120chair": 3428, "\u0120rival": 3429, "\u0120Scotland": 3430, "round": 3431, "ith": 3432, "\u0120breaking": 3433, "\u0120voting": 3434, "ically": 3435, "\u0120producer": 3436, "\u0120Love": 3437, "\u0120remove": 3438, "PA": 3439, "\u0120asset": 3440, "\u0120requires": 3441, "\u0120signing": 3442, "ages": 3443, "\u0120impressive": 3444, "\u0120Irish": 3445, "\u0120authority": 3446, "\u0120ruled": 3447, "\u0120aimed": 3448, "\u0120captain": 3449, "AG": 3450, "\u0120plants": 3451, "\u0120Anderson": 3452, "\u0120Spanish": 3453, "\u0120banking": 3454, "\u0120threats": 3455, "\u0120suspended": 3456, "\u0120tests": 3457, "\u0120religious": 3458, "\u0120electric": 3459, "\u0120READ": 3460, "\u0120strategic": 3461, "\u0120split": 3462, "ex": 3463, "\u0120practices": 3464, "\u0120Israeli": 3465, "\u0120Arabia": 3466, "\u0120Moscow": 3467, "\u0120franchise": 3468, "\u0120custody": 3469, "\u0120Old": 3470, "\u0120requirements": 3471, "\u0120quarterly": 3472, "\u0120comfortable": 3473, "\u0120crimes": 3474, "\u0120headed": 3475, "\u0120newsletter": 3476, "\u0120animal": 3477, "\u0120regulations": 3478, "long": 3479, "\u0120CNN": 3480, "\u0120assists": 3481, "\u0120shopping": 3482, "\u0120Gov": 3483, "\u0120Securities": 3484, "\u0120assistance": 3485, "\u0120nor": 3486, "\u0120relatively": 3487, "\u0120increases": 3488, "\u0120generally": 3489, "\u012055": 3490, "\u0120gained": 3491, "\u012041": 3492, "\u0120pictures": 3493, "gan": 3494, "\u0120pop": 3495, "\u0120updates": 3496, "\u0120Republic": 3497, "\u0120rebounds": 3498, "\u0120Patrick": 3499, "\u0120relief": 3500, "\u0120acting": 3501, "\u0120Festival": 3502, "\u01202006": 3503, "\u0120boss": 3504, "\u0120types": 3505, "65": 3506, "\u0120Yet": 3507, "\u0120purpose": 3508, "ning": 3509, "\u0120matters": 3510, "\u0120compete": 3511, "ball": 3512, "\u0120Ram": 3513, "\u0120sw": 3514, "\u0120Following": 3515, "\u0120Bush": 3516, "\u0120troops": 3517, "\u0120supposed": 3518, "\u0120freedom": 3519, "\u0120featured": 3520, "\u0120storage": 3521, "\u0120Information": 3522, "\u0120Hong": 3523, "\u0120golf": 3524, "\u0120agents": 3525, "\u0120fraud": 3526, "\u0120minimum": 3527, "\u0120artists": 3528, "\u0120eat": 3529, "high": 3530, "\u0120Former": 3531, "\u0120Kong": 3532, "\u0120Josh": 3533, "\u0120Delhi": 3534, "\u0120showers": 3535, "\u0120Academy": 3536, "\u0120apartment": 3537, "\u0120van": 3538, "\u0120fish": 3539, "oe": 3540, "\u0120films": 3541, "\u0120Bo": 3542, "\u0120edge": 3543, "\u0120possibly": 3544, "\u0120tweet": 3545, "09": 3546, "\u0120resolution": 3547, "jo": 3548, "\u0120kill": 3549, "\u012044": 3550, "\u0120cell": 3551, "\u0120scheme": 3552, "\u0120th": 3553, "\u0120bonds": 3554, "\u0120entry": 3555, "\u0120secret": 3556, "\u012043": 3557, "\u0120ending": 3558, "\u0120weren": 3559, "\u0120Credit": 3560, "\u0120Live": 3561, "\u0120retired": 3562, "\u0120machine": 3563, "\u0120summit": 3564, "\u0120sharing": 3565, "\u0120acquired": 3566, "\u0120era": 3567, "\u0120wear": 3568, "ical": 3569, "07": 3570, "\u0120exciting": 3571, "li": 3572, "BC": 3573, "\u0120Social": 3574, "\u0120historic": 3575, "\u0120Che": 3576, "\u0120Lewis": 3577, "ira": 3578, "\u0120stolen": 3579, "\u0120Speaking": 3580, "\u0120sleep": 3581, "\u0120spokeswoman": 3582, "week": 3583, "\u0120purchased": 3584, "\u0120importance": 3585, "EC": 3586, "\u0120ends": 3587, "\u0120dress": 3588, "\u0120parliament": 3589, "\u0120Cruz": 3590, "\u0120cards": 3591, "hi": 3592, "\u0120Email": 3593, "\u0120represent": 3594, "\u0120brands": 3595, "\u0120Senior": 3596, "\u0120participants": 3597, "\u0120fly": 3598, "\u0120identity": 3599, "\u0120Ham": 3600, "\u0120Sky": 3601, "\u0133": 3602, "SA": 3603, "\u0120promised": 3604, "\u0120trouble": 3605, "\u0120suffering": 3606, "\u0120leaves": 3607, "\u0120suggest": 3608, "Sh": 3609, "\u0120busy": 3610, "\u0120properties": 3611, "\u0120worldwide": 3612, "\u0120cloud": 3613, "\u0120SEC": 3614, "\u0120closely": 3615, "\u0120manage": 3616, "\u0120numerous": 3617, "\u0120background": 3618, "\u0120Express": 3619, "\u012065": 3620, "\u0120Tony": 3621, "\u0120Madrid": 3622, "ev": 3623, "der": 3624, "\u0120significantly": 3625, "\u0120alternative": 3626, "\u0120ship": 3627, "head": 3628, "ators": 3629, "\u0120dinner": 3630, "ax": 3631, "SC": 3632, "\u0120criticism": 3633, "\u0120Mah": 3634, "\u0120Min": 3635, "rie": 3636, "\u0120Tour": 3637, "\u0120bench": 3638, "\u0120adds": 3639, "\u0120seriously": 3640, "star": 3641, "\u0120Journal": 3642, "\u0120Di": 3643, "ali": 3644, "\u0120sentence": 3645, "\u0120Several": 3646, "\u0120mayor": 3647, "ati": 3648, "\u0120suggests": 3649, "\u0120behavior": 3650, "\u0120stronger": 3651, "\u0120Food": 3652, "\u0120client": 3653, "not": 3654, "\u0120Price": 3655, "\u0120targeted": 3656, "\u0120Singh": 3657, "\u0120Network": 3658, "\u0120prosecutors": 3659, "\u0120directed": 3660, "\u0120Democrat": 3661, "bl": 3662, "ues": 3663, "\u0120Family": 3664, "\u0120connected": 3665, "\u0120Champions": 3666, "\u0120roughly": 3667, "\u0120absolutely": 3668, "08": 3669, "\u0120passengers": 3670, "\u00c3\u00b6": 3671, "\u0120Special": 3672, "\u0120coast": 3673, "\u0120complaint": 3674, "\u0120400": 3675, "\u0120Em": 3676, "ves": 3677, "\u0120dogs": 3678, "\u0120handle": 3679, "\u0120otherwise": 3680, "\u0120sees": 3681, "\u0120ticket": 3682, "\u0120Award": 3683, "All": 3684, "\u0120task": 3685, "\u0120songs": 3686, "\u0120Among": 3687, "\u0120dedicated": 3688, "\u0120steel": 3689, "looking": 3690, "\u0120shortly": 3691, "\u0120tackle": 3692, "ative": 3693, "\u0120minor": 3694, "\u00c3\u00a2": 3695, "\u0120provider": 3696, "vers": 3697, "use": 3698, "ives": 3699, "\u0120typically": 3700, "\u0120arms": 3701, "\u0120Ant": 3702, "\u0120IS": 3703, "\u0120jump": 3704, "\u0120\u00c2\u00a9": 3705, "47": 3706, "aff": 3707, "\u0120monthly": 3708, "\u0120Microsoft": 3709, "\u0120CBS": 3710, "\u0120threatened": 3711, "\u0120honor": 3712, "\u0120Mo": 3713, "42": 3714, "\u0120inning": 3715, "\u0120pool": 3716, "\u0120healthcare": 3717, "\u0120Story": 3718, "\u0120Tennessee": 3719, "\u0120promote": 3720, "EL": 3721, "\u0120emotional": 3722, "\u0120pe": 3723, "\u0120factor": 3724, "\u0120investigators": 3725, "\u013d": 3726, "\u0120Back": 3727, "\u0120Project": 3728, "\u0120cu": 3729, "side": 3730, "\u0120messages": 3731, "TH": 3732, "eg": 3733, "\u0120experiences": 3734, "\u0120causing": 3735, "\u0120joining": 3736, "\u0120package": 3737, "\u0120bodies": 3738, "\u0120lots": 3739, "\u0120Harris": 3740, "\u0120cl": 3741, "\u0120Internet": 3742, "free": 3743, "\u0120performed": 3744, "\u0120pieces": 3745, "buy": 3746, "\u0120caption": 3747, "\u0120web": 3748, "\u0120contracts": 3749, "At": 3750, "\u0120attempted": 3751, "\u0120unlikely": 3752, "\u0120click": 3753, "\u0120invest": 3754, "IM": 3755, "\u0120View": 3756, "\u0120neighborhood": 3757, "\u0120ring": 3758, "\u0120Four": 3759, "ail": 3760, "46": 3761, "One": 3762, "\u0120native": 3763, "CH": 3764, "OM": 3765, "\u0120alcohol": 3766, "\u0120Val": 3767, "\u0120characters": 3768, "\u0120Pat": 3769, "\u0120politicians": 3770, "\u0120Mag": 3771, "\u0120begins": 3772, "\u0120Ak": 3773, "\u0120los": 3774, "\u0120personnel": 3775, "\u0120enjoyed": 3776, "\u0120Technology": 3777, "\u0120sun": 3778, "\u0120IT": 3779, "\u0120document": 3780, "\u0120deficit": 3781, "\u0120coalition": 3782, "\u0120memory": 3783, "\u0120pushing": 3784, "any": 3785, "ified": 3786, "\u0120founder": 3787, "\u01202000": 3788, "2017": 3789, "\u0120visited": 3790, "\u0120Though": 3791, "ph": 3792, "\u0120soft": 3793, "\u0120flag": 3794, "\u0120mom": 3795, "inch": 3796, "\u0120Samsung": 3797, "\u0120apps": 3798, "\u0120touchdown": 3799, "\u0120Care": 3800, "\u0120Mrs": 3801, "\u0120redistributed": 3802, "\u0120encourage": 3803, "ched": 3804, "\u0120tend": 3805, "\u0120regions": 3806, "pp": 3807, "IP": 3808, "br": 3809, "ush": 3810, "\u0120argued": 3811, "\u0120junior": 3812, "BA": 3813, "\u0120severe": 3814, "\u0120NIGHT": 3815, "\u0120def": 3816, "\u0120surrounding": 3817, "48": 3818, "\u0120engine": 3819, "\u0120filled": 3820, "\u0120seventh": 3821, "\u0120battery": 3822, "\u0120Allen": 3823, "\u0120guidance": 3824, "\u0120roll": 3825, "\u0120rural": 3826, "\u0120expert": 3827, "\u0120convicted": 3828, "\u0120likes": 3829, "\u0120Ro": 3830, "\u0120grown": 3831, "\u0120retirement": 3832, "\u0120intended": 3833, "\u0120mis": 3834, "\u0120army": 3835, "\u0120dance": 3836, "\u0120Thank": 3837, "\u0120ent": 3838, "\u0120outlook": 3839, "\u0120para": 3840, "\u0120dry": 3841, "\u0120TO": 3842, "era": 3843, "\u0120waste": 3844, "\u0120faster": 3845, "\u0120Eagles": 3846, "TA": 3847, "\u0120Frank": 3848, "\u00c3": 3849, "LE": 3850, "ura": 3851, "ko": 3852, "ao": 3853, "\u0120distribution": 3854, "\u0120improvement": 3855, "\u0120playoff": 3856, "\u0120acquisition": 3857, "\u0120CH": 3858, "\u0120tomorrow": 3859, "\u0120struggle": 3860, "\u0120Human": 3861, "\u0120newly": 3862, "oon": 3863, "\u0120Ne": 3864, "con": 3865, "sc": 3866, "\u0120unless": 3867, "\u0120transition": 3868, "ten": 3869, "\u0120Inter": 3870, "\u0120equal": 3871, "\u0120rec": 3872, "\u0120appointed": 3873, "\u0120wake": 3874, "\u0120Earth": 3875, "ose": 3876, "\u0120Eastern": 3877, "\u0120soldiers": 3878, "\u0120Parliament": 3879, "\u0120sets": 3880, "\u0120attempts": 3881, "\u0120Illinois": 3882, "\u0120revenues": 3883, "\u0120Wil": 3884, "\u0120heads": 3885, "\u0120prepare": 3886, "\u0120priority": 3887, "PS": 3888, "\u0120Jo": 3889, "\u0120NBC": 3890, "\u0120therefore": 3891, "yn": 3892, "\u0120initiative": 3893, "ct": 3894, "\u0120coffee": 3895, "\u0120Fair": 3896, "43": 3897, "den": 3898, "form": 3899, "ova": 3900, "\u0120appropriate": 3901, "\u0120Play": 3902, "\u0120accepted": 3903, "\u0120creative": 3904, "\u0120follows": 3905, "\u0120rescue": 3906, "\u0120tree": 3907, "With": 3908, "\u0120Netflix": 3909, "\u0120Football": 3910, "\u0120surprised": 3911, "\u0120lowest": 3912, "800": 3913, "amp": 3914, "\u0120worried": 3915, "mar": 3916, "ran": 3917, "\u0120visiting": 3918, "\u0120selected": 3919, "\u0120Music": 3920, "\u0120Ann": 3921, "\u0120explain": 3922, "ging": 3923, "\u0120widely": 3924, "\u0120square": 3925, "\u0120trends": 3926, "\u0120improving": 3927, "\u0120Head": 3928, "\u0120Queen": 3929, "\u0120Society": 3930, "\u0120cutting": 3931, "\u0120GOP": 3932, "03": 3933, "',": 3934, "ET": 3935, "\u0120Drive": 3936, "oll": 3937, "ato": 3938, "\u0120Sea": 3939, "\u0120jury": 3940, "\u0120Rights": 3941, "\u0120investor": 3942, "\u0120ABC": 3943, "\u0120tool": 3944, "\u0120Are": 3945, "\u0120rejected": 3946, "\u0120emerging": 3947, "\u0120counts": 3948, "\u0120nations": 3949, "\u0120false": 3950, "\u0120treat": 3951, "va": 3952, "\u0120weak": 3953, "\u0120Highway": 3954, "down": 3955, "\u0120struggled": 3956, "\u0120MP": 3957, "\u0120guests": 3958, "\u0120gender": 3959, "\u0120houses": 3960, "rit": 3961, "\u0120Wild": 3962, "\u0120streak": 3963, "uc": 3964, "\u0120Reserve": 3965, "\u0120Ratings": 3966, "alt": 3967, "\u0120greatest": 3968, "\u0120lawyers": 3969, "\u0120reaching": 3970, "\u0120temperatures": 3971, "To": 3972, "\u0120outstanding": 3973, "\u0120passes": 3974, "\u0120faith": 3975, "inc": 3976, "\u0120cr": 3977, "\u0120informed": 3978, "oz": 3979, "\u0120trees": 3980, "\u0120sending": 3981, "\u0120150": 3982, "bo": 3983, "\u0120wine": 3984, "ros": 3985, "\u0120suspected": 3986, "\u0120repeatedly": 3987, "\u0120hat": 3988, "\u0120shape": 3989, "\u0120Wh": 3990, "\u0120assist": 3991, "\u0120stress": 3992, "\u0120feed": 3993, "ark": 3994, "ored": 3995, "\u0120watched": 3996, "\u0120incredible": 3997, "cl": 3998, "nt": 3999, "\u0120entertainment": 4000, "ih": 4001, "\u0120beauty": 4002, "\u0120bi": 4003, "\u0120Local": 4004, "\u0120sat": 4005, "41": 4006, "\u0120broad": 4007, "\u0120heavily": 4008, "\u0120engaged": 4009, "\u0120specifically": 4010, "\u0120Men": 4011, "\u0120Ross": 4012, "\u01202005": 4013, "ST": 4014, "95": 4015, "\u0120download": 4016, "400": 4017, "\u0120sentenced": 4018, "\u0120Catholic": 4019, "\u0120Oklahoma": 4020, "\u0120threw": 4021, "\u0120worry": 4022, "\u0120imp": 4023, "\u0120drove": 4024, "\u0120colleagues": 4025, "\u0120agenda": 4026, "64": 4027, "\u0120Each": 4028, "\u0120fee": 4029, "New": 4030, "ium": 4031, "\u0120spokesperson": 4032, "\u0120bills": 4033, "\u012047": 4034, "\u0120Afghanistan": 4035, "\u0120invited": 4036, "\u0120YouTube": 4037, "\u0120anniversary": 4038, "\u0120dozen": 4039, "ram": 4040, "\u0120Only": 4041, "\u0120employment": 4042, "Getty": 4043, "\u0120gap": 4044, "\u0120sweet": 4045, "\u0120Little": 4046, "\u0120inf": 4047, "ying": 4048, "\u0120glass": 4049, "\u0120classes": 4050, "\u0120coal": 4051, "\u0120Sub": 4052, "\u0120duty": 4053, "CA": 4054, "\u0120coaches": 4055, "\u00c2": 4056, "anna": 4057, "\u0120Sk": 4058, "\u012046": 4059, "ison": 4060, "ille": 4061, "\u0120ST": 4062, "ric": 4063, "\u0120participate": 4064, "\u0120equ": 4065, "\u0120rich": 4066, "\u0120respectively": 4067, "\u0120expenses": 4068, "\u0120combination": 4069, "right": 4070, "\u0120shareholders": 4071, "\u0120turns": 4072, "\u0120earn": 4073, "\u012051": 4074, "ured": 4075, "\u0120drink": 4076, "\u0120Kar": 4077, "\u0120Shares": 4078, "\u0120Mid": 4079, "\u0120Getty": 4080, "\u0120bridge": 4081, "lo": 4082, "\u0120inspired": 4083, "\u0120surface": 4084, "\u0120gift": 4085, "ence": 4086, "\u0120challenging": 4087, "\u0120offices": 4088, "\u0120suspects": 4089, "\u0120Finance": 4090, "\u0120ab": 4091, "bound": 4092, "\u0120momentum": 4093, "\u0120backed": 4094, "\u0120parent": 4095, "\u0120crucial": 4096, "ave": 4097, "\u0120dealing": 4098, "\u0120regulatory": 4099, "\u0120apparently": 4100, "\u0120Mat": 4101, "\u0120apart": 4102, "\u0120port": 4103, "ole": 4104, "\u0120beach": 4105, "\u0120cultural": 4106, "\u0120institutional": 4107, "\u0120beating": 4108, "\u0120Iowa": 4109, "\u0120Ali": 4110, "67": 4111, "\u0120je": 4112, "ays": 4113, "\u0120weekly": 4114, "\u0120birthday": 4115, "\u0120pipeline": 4116, "\u0120knee": 4117, "\u0120solar": 4118, "\u0120Pe": 4119, "\u0120category": 4120, "\u0120Area": 4121, "ky": 4122, "ures": 4123, "06": 4124, "\u0120Ball": 4125, "\u0120semi": 4126, "\u0120Hamilton": 4127, "hip": 4128, "\u0120Ph": 4129, "\u0120Next": 4130, "\u0120athletes": 4131, "ii": 4132, "\u0120movies": 4133, "han": 4134, "net": 4135, "\u0120plastic": 4136, "\u0120behalf": 4137, "gen": 4138, "\u0120findings": 4139, "\u0120stretch": 4140, "\u0120Sa": 4141, "\u0120officially": 4142, "\u0120Sarah": 4143, "\u0120privacy": 4144, "\u0120Mad": 4145, "\u0120none": 4146, "gh": 4147, "On": 4148, "\u0120drama": 4149, "\u0120Fl": 4150, "ika": 4151, "\u0120Arsenal": 4152, "\u0120violent": 4153, "UN": 4154, "called": 4155, "59": 4156, "\u0120hate": 4157, "\u0120relationships": 4158, "\u0120granted": 4159, "\u0120Jon": 4160, "\u0120listen": 4161, "season": 4162, "\u0120fewer": 4163, "GA": 4164, "\u0120Labour": 4165, "\u0120remarks": 4166, "\u0120Jonathan": 4167, "\u0120Ros": 4168, "sey": 4169, "\u0120Ontario": 4170, "\u0120Thompson": 4171, "\u0120Night": 4172, "\u0120ranked": 4173, "\u0120Ukraine": 4174, "\u0120immigrants": 4175, "\u0120degrees": 4176, "\u0120Ge": 4177, "\u0120labor": 4178, "umb": 4179, "\u0120YORK": 4180, "\u0120allies": 4181, "sp": 4182, "hed": 4183, "sw": 4184, "\u0120tariffs": 4185, "SP": 4186, "\u0120classic": 4187, "\u0120awards": 4188, "ents": 4189, "\u0120fix": 4190, "\u0120soccer": 4191, "\u0120concert": 4192, "ust": 4193, "\u0120adult": 4194, "\u0120output": 4195, "\u0120managing": 4196, "02": 4197, "\u0120promise": 4198, "\u0120awareness": 4199, "\u0120gross": 4200, "\u0120entering": 4201, "\u0120po": 4202, "oj": 4203, "\u0120metal": 4204, "\u0120exit": 4205, "\u0120excellent": 4206, "\u0120clubs": 4207, "hold": 4208, "\u0120replaced": 4209, "\u0120Class": 4210, "\u0120scientists": 4211, "\u0120primarily": 4212, "\u0120Mer": 4213, "\u00c3\u00a3o": 4214, "\u0120circumstances": 4215, "ades": 4216, "\u0120supplies": 4217, "aker": 4218, "\u0120Sand": 4219, "\u0120scandal": 4220, "\u0120settlement": 4221, "\u0120Wisconsin": 4222, "\u0120Warriors": 4223, "\u0120Austin": 4224, "\u0120journalists": 4225, "ening": 4226, "\u0120reflect": 4227, "\u0120Buy": 4228, "\u0120Awards": 4229, "\u0120selection": 4230, "\u0120Bel": 4231, "bury": 4232, "\u0120technologies": 4233, "%,": 4234, "ime": 4235, "\u0120\u00c4": 4236, "\u0120Administration": 4237, "\u0120channel": 4238, "Star": 4239, "\u0120transport": 4240, "\u0120awarded": 4241, "ena": 4242, "\u0120motor": 4243, "orn": 4244, "kin": 4245, "\u0120featuring": 4246, "\u0120phones": 4247, "\u0120AND": 4248, "\u0120relevant": 4249, "\u0120See": 4250, "\u0120winners": 4251, "\u0120dad": 4252, "\u0120Source": 4253, "\u0120Check": 4254, "aut": 4255, "\u0120Far": 4256, "\u0120opponents": 4257, "\u0120outcome": 4258, "\u0120doors": 4259, "\u0120suicide": 4260, "ima": 4261, "\u0120jumped": 4262, "\u0120perspective": 4263, "\u0120transportation": 4264, "\u0120thinks": 4265, "\u0120Mor": 4266, "\u0120deadline": 4267, "\u012053": 4268, "\u0120Deputy": 4269, "ery": 4270, "\u0120detailed": 4271, "uch": 4272, "\u0120Bur": 4273, "\u0120trades": 4274, "\u0120Greg": 4275, "\u0120zero": 4276, "erson": 4277, "\u0120Children": 4278, "\u0120du": 4279, "66": 4280, "\u0120mixed": 4281, "\u0120Barack": 4282, "54": 4283, "\u0120territory": 4284, "\u0120ac": 4285, "\u0120concept": 4286, "\u0120Add": 4287, "\u0120ourselves": 4288, "\u0120reaction": 4289, "\u0120Sydney": 4290, "ink": 4291, "\u0120consistent": 4292, "\u0120boat": 4293, "room": 4294, "\u0120dozens": 4295, "\u0120effectively": 4296, "but": 4297, "\u0120motion": 4298, "\u0120alive": 4299, "\u0120Key": 4300, "weight": 4301, "\u0120exports": 4302, "\u0120operate": 4303, "\u0120regime": 4304, "\u0120Authority": 4305, "och": 4306, "\u0120CR": 4307, "leg": 4308, "\u0120forget": 4309, "American": 4310, "bs": 4311, "\u0120thoughts": 4312, "\u0120Sign": 4313, "\u0120Patriots": 4314, "\u0120brief": 4315, "\u0120Oregon": 4316, "\u0120Bal": 4317, "\u0120mine": 4318, "\u0120citing": 4319, "\u0120magazine": 4320, "more": 4321, "ERS": 4322, "\u0120Ber": 4323, "ua": 4324, "ox": 4325, "\u0120Main": 4326, "\u0120instance": 4327, "tr": 4328, "\u0120restaurants": 4329, "ora": 4330, "\u0120harassment": 4331, "\",\"": 4332, "\u0141": 4333, "\u0120silver": 4334, "\u0120Mueller": 4335, "\u0120Senator": 4336, "\u0120Every": 4337, "\u0120footage": 4338, "ms": 4339, "\u0120opposed": 4340, "\u0120Link": 4341, "\u0120ver": 4342, "\u0120pleased": 4343, "ame": 4344, "ending": 4345, "\u0120rivals": 4346, "ida": 4347, "ike": 4348, "ta": 4349, "\u0120Cook": 4350, "\u0120headquarters": 4351, "ear": 4352, "\u0120aggressive": 4353, "\u0120courts": 4354, "\u0120Museum": 4355, "\u0120im": 4356, "\u0120Holdings": 4357, "\u0120communication": 4358, "\u0120phase": 4359, "yl": 4360, "\u0120powers": 4361, "\u0120proved": 4362, "\u0120carbon": 4363, "\u0120aside": 4364, "\u0120Olympics": 4365, "\u0120gathered": 4366, "\u0120Pennsylvania": 4367, "\u0120smartphone": 4368, "\u0120Met": 4369, "\u0120Hurricane": 4370, "\u0120protected": 4371, "\u0120communications": 4372, "\u0120emerged": 4373, "\u0120aim": 4374, "\u0120stable": 4375, "ides": 4376, "GB": 4377, "\u0120entirely": 4378, "\u0120missile": 4379, "\u0120Gen": 4380, "\u0120unclear": 4381, "\u0120electricity": 4382, "ology": 4383, "away": 4384, "\u0120license": 4385, "\u0120Pittsburgh": 4386, "\u0120cameras": 4387, "\u0120musical": 4388, "\u0120managers": 4389, "57": 4390, "\u0120scores": 4391, "\u0120profile": 4392, "hel": 4393, "\u00bc": 4394, "\u0120shouldn": 4395, "RA": 4396, ");": 4397, "\u0120permanent": 4398, "ome": 4399, "\u0120et": 4400, "\u0120mar": 4401, "\u0120favor": 4402, "\u0120maker": 4403, "\u0120discussions": 4404, "ory": 4405, "\u0120sharp": 4406, "\u0120pleaded": 4407, "\u0120passenger": 4408, "quarter": 4409, "\u0120dem": 4410, "\u0120versus": 4411, "\u0120mainly": 4412, "\u0120eighth": 4413, "\u0120Airport": 4414, "\u0120Cross": 4415, "million": 4416, "\u0120Nas": 4417, "\u0120cited": 4418, "56": 4419, "\u0120yes": 4420, "\u0120Below": 4421, "arn": 4422, "\u0120Turkish": 4423, "\u0120Sl": 4424, "\u0120stepped": 4425, "\u0120producers": 4426, "\u0120overnight": 4427, "\u0120sounds": 4428, "52": 4429, "\u012064": 4430, "\u012054": 4431, "58": 4432, "\u0120Clark": 4433, "\u0120Rick": 4434, "\u0120gr": 4435, "\u0120Mont": 4436, "\u0120beer": 4437, "une": 4438, "\u0120reporter": 4439, "\u0120charity": 4440, "\u0120eating": 4441, "\u0120extend": 4442, "\u0120guess": 4443, "NA": 4444, "\u0120hedge": 4445, "\u0120encouraged": 4446, "owned": 4447, "\u0120Mel": 4448, "\u0120Kentucky": 4449, "ace": 4450, "\u0120lineup": 4451, "\u0120hosts": 4452, "\u0120capable": 4453, "PR": 4454, "\u0120Arts": 4455, "\u0120controversial": 4456, "\u0120hosted": 4457, "ries": 4458, "\u0120roster": 4459, "\u0120fixed": 4460, "\u0120Walker": 4461, "ged": 4462, "\u0120disaster": 4463, "\u0120dispute": 4464, "\u0120Denver": 4465, "\u0120Trade": 4466, "ute": 4467, "ese": 4468, "cy": 4469, "\u0120grant": 4470, "\u0120Max": 4471, "\u0120distance": 4472, "isc": 4473, "\u0120editor": 4474, "\u0120Dave": 4475, "\u0120performances": 4476, "\u0120lay": 4477, "\u0120vulnerable": 4478, "\u0120Murray": 4479, "\u0120\u00e2\u0124\u00ac": 4480, "\u0120mining": 4481, "\u01202004": 4482, "level": 4483, "ability": 4484, "\u0120auto": 4485, "\u0120fake": 4486, "\u0120attacked": 4487, "ona": 4488, "ups": 4489, "ened": 4490, "\u0120fallen": 4491, "\u0120stations": 4492, "\u0120Contact": 4493, "itz": 4494, "\u0120incidents": 4495, "\u0120complaints": 4496, "\u0120operates": 4497, "\u0120refugees": 4498, "\u0120essential": 4499, "\u0120Test": 4500, "\u0120demands": 4501, "\u0120roles": 4502, "yr": 4503, "\u0120acts": 4504, "\u0120usual": 4505, "ring": 4506, "\u0120handed": 4507, "\u0120Matthew": 4508, "hour": 4509, "\u0120industries": 4510, "\u0120shoot": 4511, "\u0120Authorities": 4512, "\u0120probe": 4513, "\u0120Utah": 4514, "\u0120RBI": 4515, "\u0120AD": 4516, "\u0120prospect": 4517, "outs": 4518, "\u0120Uber": 4519, "\u0120bright": 4520, "\u0120mention": 4521, "\u0120savings": 4522, "\u0120Miss": 4523, "ONDON": 4524, "\u01201990": 4525, "arm": 4526, "\u0120Ten": 4527, "These": 4528, "\u0120explains": 4529, "minute": 4530, "85": 4531, "\u0120maximum": 4532, "\u0120ro": 4533, "\u0120rookie": 4534, "\u0120studio": 4535, "\u0120Cam": 4536, "\u0120Gal": 4537, "\u0120defend": 4538, "hand": 4539, "53": 4540, "\u0120Oil": 4541, "\u0120serves": 4542, "\u0120sn": 4543, "ios": 4544, "\u0120Defense": 4545, "AB": 4546, "\u0120hired": 4547, "\u0120supports": 4548, "\u0120premium": 4549, "ef": 4550, "\u0120failing": 4551, "\u0120Indiana": 4552, "\u0120exp": 4553, "\u0120objective": 4554, "\u0120affordable": 4555, "\u0120Com": 4556, "\u0120Thanks": 4557, "\u0120anywhere": 4558, "\u0120confirm": 4559, "ited": 4560, "\u0120representing": 4561, "\u0120witness": 4562, "69": 4563, "\u0120claiming": 4564, "\u0120violation": 4565, "\u0120historical": 4566, "med": 4567, "\u0120preparing": 4568, "\u0120Tech": 4569, "\u0120posts": 4570, "OC": 4571, "\u0120Graham": 4572, "\u0120Gl": 4573, "\u0120Lions": 4574, "ales": 4575, "\u0120ID": 4576, "\u0120correct": 4577, "\u0120Antonio": 4578, "\u0120advertising": 4579, "\u0120eastern": 4580, "OW": 4581, "\u0120holdings": 4582, "\u0120polls": 4583, "\u0120SH": 4584, "\u0120executives": 4585, "\u0120Jewish": 4586, "\u0120Gary": 4587, "\u0120prize": 4588, "\u0120Commissioner": 4589, "\u0120cells": 4590, "ify": 4591, "\u0120lunch": 4592, "\u0120democracy": 4593, "\u0120Er": 4594, "\u0120regularly": 4595, "\u0120resulted": 4596, "\u0120Ave": 4597, "\u0120Partners": 4598, "\u0120rewritten": 4599, "\u0120lo": 4600, "\u0120cooperation": 4601, "\u0120Gulf": 4602, "\u0120smoke": 4603, "\u0120Memorial": 4604, "\u0120wave": 4605, "\u0120fears": 4606, "\u0120kid": 4607, "\u0120Giants": 4608, "\u0120recovered": 4609, "row": 4610, "\u0120Radio": 4611, "\u0120Barcelona": 4612, "\u0120wonderful": 4613, "\u0120Dow": 4614, "\u0120stream": 4615, "\u0120Simon": 4616, "\u0120detail": 4617, "\u0120volunteers": 4618, "\u0120Ind": 4619, "\u0120forms": 4620, "mann": 4621, "\u0120Ray": 4622, "oor": 4623, "\u0120Take": 4624, "\u0120represented": 4625, "het": 4626, "\u0120blow": 4627, "aged": 4628, "RE": 4629, "\u0120Missouri": 4630, "\u0120covering": 4631, "\u0120profits": 4632, "\u0120concluded": 4633, "\u0120thus": 4634, "\u0120Columbia": 4635, "ode": 4636, "\u0120Zimbabwe": 4637, "\u0120disclosed": 4638, "\u0120lifted": 4639, "\u0120Sean": 4640, "\u0120Harvey": 4641, "\u0120Plus": 4642, "ces": 4643, "\u0120Greece": 4644, "\u0120Lady": 4645, "\u0120delay": 4646, "\u0120kitchen": 4647, "\u0120Index": 4648, "\u0120bear": 4649, "\u0120puts": 4650, "new": 4651, "88": 4652, "\u0120Ash": 4653, "\u00c5\u00a1": 4654, "\u0120performing": 4655, "law": 4656, "\u0120Part": 4657, "\u0120indicated": 4658, "\u0120announce": 4659, "\u0120compensation": 4660, "\u0120ka": 4661, "\u0120Science": 4662, "ris": 4663, "\u0120recommendations": 4664, "\u0120Second": 4665, "\u0120lights": 4666, "\u0120temporary": 4667, "urs": 4668, "\u0120western": 4669, "stone": 4670, "68": 4671, "\u0120Disney": 4672, "\u0120playoffs": 4673, "\u0120judges": 4674, "\u0120engineering": 4675, "\u0120Pen": 4676, "\u0120Pal": 4677, "\u0120obvious": 4678, "\u0120Bridge": 4679, "\u0120End": 4680, "\u0120Arab": 4681, "\u0120except": 4682, "\u0120hole": 4683, "class": 4684, "\u0120causes": 4685, "\u0120connect": 4686, "\u0120AI": 4687, "An": 4688, "\u0120chose": 4689, "\u0120Elizabeth": 4690, "min": 4691, "\u0120proper": 4692, "\u0120NHL": 4693, "\u0120races": 4694, "\u0120innovation": 4695, "\u0120sugar": 4696, "600": 4697, "\u0120Modi": 4698, "illa": 4699, "\u0120trillion": 4700, "\u0120Sar": 4701, "\u0120Affairs": 4702, "\u0120impossible": 4703, "\u0120guide": 4704, "\u0120captured": 4705, "\u0120Sales": 4706, "\u0120species": 4707, "51": 4708, "\u0120ar": 4709, "\u0120master": 4710, "\u0120stayed": 4711, "iro": 4712, "\u0120Economic": 4713, "\u0120vast": 4714, "ili": 4715, "\u0120pet": 4716, "ye": 4717, "77": 4718, "\u0120keeps": 4719, "\u0120Phil": 4720, "\u0120EPS": 4721, "\u0120Regional": 4722, "\u0120sectors": 4723, "\u0120desire": 4724, "\u0120Stanley": 4725, "\u00be": 4726, "\u0120unknown": 4727, "\u0120pot": 4728, "\u0120PR": 4729, "\u0120knowing": 4730, "\u0120flying": 4731, "\u0120Treasury": 4732, "iers": 4733, "enn": 4734, "ably": 4735, "\u0120sick": 4736, "\u0120manner": 4737, "\u0120manufacturers": 4738, "\u0120champions": 4739, "gy": 4740, "Part": 4741, "ister": 4742, "\u0120Mountain": 4743, "\u0120imagine": 4744, "\u0120portion": 4745, "\u0120Camp": 4746, "\u0120chemical": 4747, "ible": 4748, "\u0120Analy": 4749, "\u0120Bureau": 4750, "\u0120pm": 4751, "\u0120updated": 4752, "\u0120etc": 4753, "\u0120Field": 4754, "iles": 4755, "\u0120obtained": 4756, "\u0120stick": 4757, "\u0120cat": 4758, "har": 4759, "\u0120marked": 4760, "\u0120medium": 4761, "\u0120Des": 4762, "People": 4763, "\u0120wealth": 4764, "ores": 4765, "\u0120Baltimore": 4766, "\u0120tip": 4767, "\u0120dismissed": 4768, "\u0120Victoria": 4769, "\u0120Brad": 4770, "Ch": 4771, "\u012056": 4772, "\u0120stadium": 4773, "eth": 4774, "\u0120thunder": 4775, "\u0120tested": 4776, "\u0120drawn": 4777, "\u0120counsel": 4778, "ld": 4779, "\u0120spirit": 4780, "uss": 4781, "\u0120theme": 4782, "my": 4783, "\u0120necessarily": 4784, "\u0120elements": 4785, "\u0120collected": 4786, "\u0120Res": 4787, "\u0120Maryland": 4788, "\u0120Enter": 4789, "\u0120founded": 4790, "ae": 4791, "\u0120pilot": 4792, "\u0120shoulder": 4793, "PC": 4794, "\u0120argument": 4795, "\u0120yen": 4796, "\u0120receiver": 4797, "\u0120harm": 4798, "\u0120ET": 4799, "\u0120protesters": 4800, "\u012072": 4801, "\u0120Aaron": 4802, "\u0120ed": 4803, "\u0120expecting": 4804, "\":\"": 4805, "\u0120bike": 4806, "\u00c4\u0129": 4807, "\u0120luxury": 4808, "half": 4809, "\u0120Barbara": 4810, "\u0120foundation": 4811, "\u0120ill": 4812, "\u0120submitted": 4813, "\u0120deeply": 4814, "\u0120hospitals": 4815, "\u0120BJP": 4816, "\u0120shock": 4817, "\u0120platforms": 4818, "\u0120summary": 4819, "\u0120Where": 4820, "\u0120celebration": 4821, "iff": 4822, "\u0120veterans": 4823, "\u0120achieved": 4824, "fl": 4825, "\u0120activists": 4826, "\u0120Manager": 4827, "\u0120formal": 4828, "\u0120formed": 4829, "\u0120investigate": 4830, "\u0120Kyle": 4831, "\u0120:": 4832, "\u0120Ra": 4833, "ovic": 4834, "\u0120drinking": 4835, "\u0120networks": 4836, "\u0120Alexander": 4837, "\u0120Os": 4838, "\u0120)": 4839, "\u0120bomb": 4840, "\u0120recalled": 4841, "ito": 4842, "ient": 4843, "\u0120representatives": 4844, "\u0120Christ": 4845, "\u0120Way": 4846, "\u0120deadly": 4847, "\u0120investing": 4848, "\u0120Russell": 4849, "\u0120consumption": 4850, "\u0120harder": 4851, "\u0120bail": 4852, "\u0120critics": 4853, "\u0120danger": 4854, "\u0120drew": 4855, "\u0120Sol": 4856, "\u0120copyright": 4857, "\u0120Henry": 4858, "\u0120buyers": 4859, "\u0120residential": 4860, "\u0120maintenance": 4861, "pr": 4862, "\u0120marks": 4863, "\u0120ages": 4864, "\u0120covers": 4865, "\u0120ton": 4866, "\u0120titles": 4867, "\u0120PS": 4868, "\u0120Evans": 4869, "\u0120migrants": 4870, "\u0120flights": 4871, "\u0120monitoring": 4872, "\u0120addressed": 4873, "\u0120vital": 4874, "\u0120controlled": 4875, "\u0120weapon": 4876, "\u0120inches": 4877, "\u0120reduction": 4878, "\u0120urban": 4879, "\u0120coaching": 4880, "\u0120reducing": 4881, "ila": 4882, "\u0120realize": 4883, "\u0120meat": 4884, "\u0120ref": 4885, "\u0120overseas": 4886, "\u0120blame": 4887, "\u0120terrorist": 4888, "\u0120stuck": 4889, "\u0120Us": 4890, "esh": 4891, "pro": 4892, "\u012058": 4893, "ough": 4894, "\u0120exposure": 4895, "\u0120Abu": 4896, "state": 4897, "\u0120providers": 4898, "\u0120fore": 4899, "\u0120jet": 4900, "bar": 4901, "\u0120ownership": 4902, "ret": 4903, "\u0120upset": 4904, "\u0120facts": 4905, "\u0120purchasing": 4906, "\u0120reforms": 4907, "\u0120river": 4908, "\u0120somebody": 4909, "\u0120guest": 4910, "iy": 4911, "\u0120auction": 4912, "\u0120Reading": 4913, "\u0120consequences": 4914, "\u0120representative": 4915, "\u0120appointment": 4916, "add": 4917, "\u0120collaboration": 4918, "\u0120Tesla": 4919, "\u0120Cohen": 4920, "\u0120engagement": 4921, "\u0120speaks": 4922, "EST": 4923, "\u0120exposed": 4924, "\u0120maintained": 4925, "rs": 4926, "\u0120dating": 4927, "\u0120Program": 4928, "board": 4929, "\u0120racing": 4930, "\u0120pension": 4931, "ign": 4932, "iti": 4933, "\u0120Five": 4934, "\u0120extensive": 4935, "\u0120Ha": 4936, "\u0120Point": 4937, "\u0120Mexican": 4938, "\u0120expanded": 4939, "\u0120totally": 4940, "\u0120investigations": 4941, "\u0120Orleans": 4942, "\u0120cycle": 4943, "\u0120ESPN": 4944, "ifying": 4945, "\u0120cup": 4946, "\u0120Az": 4947, "\u0120Investors": 4948, "\u0120engage": 4949, "reg": 4950, "\u0120fought": 4951, "\u0120terrorism": 4952, "\u0120blocked": 4953, "\u0120OK": 4954, "\u00c4\u012f": 4955, "72": 4956, "\u0120destroyed": 4957, "\u00ab": 4958, "\u0120staying": 4959, "\u0120afford": 4960, "\u0120appearances": 4961, "\u0120Hills": 4962, "\u0120crore": 4963, "\u0120strategies": 4964, "\u0120tips": 4965, "\u0120Sm": 4966, "\u0120Fr": 4967, "\u0120banned": 4968, "\u0120Son": 4969, "ask": 4970, "\u0120limits": 4971, "\u0120recognition": 4972, "\u0120eligible": 4973, "\u0120Gar": 4974, "\u0120volatility": 4975, "\u0120laid": 4976, "nes": 4977, "\u0120grade": 4978, "\u0120RE": 4979, "\u0120Hart": 4980, "\u012057": 4981, "oma": 4982, "\u0120uncertainty": 4983, "\u0120recognized": 4984, "\u0120PC": 4985, "\u0120chosen": 4986, "uz": 4987, "\u0120adviser": 4988, "una": 4989, "\u0120assessment": 4990, "\u0120reveal": 4991, "mo": 4992, "After": 4993, "\u0120Bro": 4994, "\u0120Off": 4995, "\u0120peak": 4996, "\u0120referred": 4997, "\u0120SC": 4998, "\u01202003": 4999, "ification": 5000, "\u0120shutdown": 5001, "\u0120Officials": 5002, "ias": 5003, "\u0120extreme": 5004, "\u0120flood": 5005, "\u0120hockey": 5006, "\u0120wage": 5007, "\u0120Net": 5008, "\u0120damaged": 5009, "\u0120replacement": 5010, "\u0120Maria": 5011, "\u0120creation": 5012, "\u0120guns": 5013, "aci": 5014, "\u0120worker": 5015, "do": 5016, "\u0120viewers": 5017, "\u0120seed": 5018, "sts": 5019, "\u0120touchdowns": 5020, "\u0120mistake": 5021, "ray": 5022, "ull": 5023, "\u0120pricing": 5024, "\u0120strongly": 5025, "\u0120aims": 5026, "\u0120Navy": 5027, "\u0120Egypt": 5028, "ker": 5029, "\u0120ve": 5030, "\u0120Steven": 5031, "\u0120res": 5032, "ational": 5033, "\u0120requests": 5034, "\u0120emissions": 5035, "\u0120Arena": 5036, "uma": 5037, "\u0120Atlantic": 5038, "hr": 5039, "\u0120AFP": 5040, "\u0120Square": 5041, "\u0120contribute": 5042, "\u0120function": 5043, "\u0120dec": 5044, "\u0120Nelson": 5045, "89": 5046, "\u0120referendum": 5047, "\u0120Pre": 5048, "\u0120applied": 5049, "\u0120GMT": 5050, "\u0120Iranian": 5051, "\u0120Nigerian": 5052, "\u0120Any": 5053, "NG": 5054, "\u0120acknowledged": 5055, "\u0120referring": 5056, "\u0120venture": 5057, "\u0120imports": 5058, "\u0120blog": 5059, "\u0120futures": 5060, "OU": 5061, "\u0120UFC": 5062, "\u0120neither": 5063, "\u0120extension": 5064, "hes": 5065, "\u0120Med": 5066, "76": 5067, "\u0120sustainable": 5068, "ains": 5069, "\u0120reputation": 5070, "\u0120Vancouver": 5071, "\u0120basically": 5072, "acy": 5073, "\u0120sad": 5074, "\u0120Francis": 5075, "\u0120Kennedy": 5076, "\u0120Nevada": 5077, "\u0120Lu": 5078, "ras": 5079, "\u0120Av": 5080, "\u0120rear": 5081, "\u0120Ho": 5082, "\u0120properly": 5083, "abe": 5084, "\u0120Hotel": 5085, "\u0120opinions": 5086, "under": 5087, "\u0120Station": 5088, "\u0120FOR": 5089, "ops": 5090, "\u0120adopted": 5091, "\u0120Swiss": 5092, "\u0120Country": 5093, "\u0120Ter": 5094, "\u0120Andy": 5095, "Me": 5096, "\u0120Cooper": 5097, "\u0120Tigers": 5098, "\u0120Creek": 5099, "\u0120gay": 5100, "iner": 5101, "\u0120AN": 5102, "\u0120bird": 5103, "lla": 5104, "\u0120Kate": 5105, "\u0120Pet": 5106, "ni": 5107, "\u0120prospects": 5108, "ater": 5109, "ites": 5110, "\u0120escape": 5111, "lam": 5112, "ake": 5113, "\u01201980": 5114, "\u0120Lag": 5115, "\u0120successfully": 5116, "\u0120districts": 5117, "\u0120ministers": 5118, "aries": 5119, "\u0120frame": 5120, "\u0120ON": 5121, "\u0120Euro": 5122, "\u0120Markets": 5123, "\u0120register": 5124, "\u0120defeated": 5125, "\u0120developments": 5126, "\u0120ninth": 5127, "\u0120quiet": 5128, "\u0120generated": 5129, "\u0120valuable": 5130, "\u0120recommended": 5131, "\u0120Theatre": 5132, "\u0120Cap": 5133, "bed": 5134, "\u0120reference": 5135, "\u0120ease": 5136, "oring": 5137, "\u012066": 5138, "\u0120improvements": 5139, "\u0120elsewhere": 5140, "\u0120Hillary": 5141, "\u0120defender": 5142, "\u0120Right": 5143, "zy": 5144, "\u0120comprehensive": 5145, "\u0120spotted": 5146, "\u0120Oakland": 5147, "\u0120Ok": 5148, "\u0120System": 5149, "ique": 5150, "\u0120persons": 5151, "\u0120exist": 5152, "\u0120broader": 5153, "\u0120clinical": 5154, "\u01202001": 5155, "oul": 5156, "\u0120securities": 5157, "ghan": 5158, "\u0120shelter": 5159, "ero": 5160, "ATED": 5161, "\u0120hosting": 5162, "\u0120select": 5163, "\u0120Kavanaugh": 5164, "\u0120restrictions": 5165, "osa": 5166, "\u0120yields": 5167, "\u0120LA": 5168, "\u012059": 5169, "\u0120wonder": 5170, "\u0120absence": 5171, "\u00c3\u00bcr": 5172, "\u00c5\u0124": 5173, "DP": 5174, "\u0120electronic": 5175, "\u0120illegally": 5176, "\u0120micro": 5177, "\u0120NEW": 5178, "\u0120hall": 5179, "\u0120aged": 5180, "\u0120temperature": 5181, "cast": 5182, "atic": 5183, "\u0120legacy": 5184, "\u0120affairs": 5185, "ji": 5186, "\u0120Resources": 5187, "\u0120gang": 5188, "winning": 5189, "\u0120attending": 5190, "aro": 5191, "\u0120friendly": 5192, "aine": 5193, "\u0120cannabis": 5194, "\u0120airline": 5195, "\u0120noting": 5196, "\u0120professionals": 5197, "\u0120FREE": 5198, "RC": 5199, "\u0120financing": 5200, "\u0120independence": 5201, "ved": 5202, "\u0120resulting": 5203, "\u0120steady": 5204, "\u0120Winter": 5205, "uring": 5206, "\u0120hoped": 5207, "98": 5208, "\u0120presentation": 5209, "aya": 5210, "\u0120rated": 5211, "osh": 5212, "\u0120Analysis": 5213, "=": 5214, "\u0120donations": 5215, "IR": 5216, "\u0120combat": 5217, "\u0120Howard": 5218, "anda": 5219, "79": 5220, "\u0120invested": 5221, "\u0120expanding": 5222, "omb": 5223, "ress": 5224, "ble": 5225, "\u0120journalist": 5226, "\u0120Woods": 5227, "\u0120centers": 5228, "ott": 5229, "\u0120streaming": 5230, "\u0120terror": 5231, "\u0120sustained": 5232, "\u0120WWE": 5233, "pre": 5234, "\u00c5\u0141": 5235, "ait": 5236, "\u0120arrival": 5237, "\u0120residence": 5238, "\u0120extent": 5239, "\u0120arrive": 5240, "\u01202002": 5241, "\u0120establish": 5242, "74": 5243, "\u0120Argentina": 5244, "\u0120Dem": 5245, "inn": 5246, "aud": 5247, "\u0120NCAA": 5248, "\u0120questioned": 5249, "\u0120ballot": 5250, "\u0120min": 5251, "\u0120landscape": 5252, "\u0120horse": 5253, "\u0120opponent": 5254, "iel": 5255, "\u0120prompted": 5256, "atory": 5257, "\u0120lift": 5258, "\u0120association": 5259, "cher": 5260, "\u0120defending": 5261, "\u0120tiny": 5262, "\u0120poverty": 5263, "\u0120Safety": 5264, "\u0120petition": 5265, "\u0120Limited": 5266, "\u0120CA": 5267, "FC": 5268, "\u00c3\u0142": 5269, "oni": 5270, "\u0120monitor": 5271, "\u00c3\u0143a": 5272, "MA": 5273, "\u0120answers": 5274, "\u0120Mitchell": 5275, "\u0120bo": 5276, "\u0120Shah": 5277, "\u0120sm": 5278, "\u0120medal": 5279, "\u0120Civil": 5280, "\u0120recognize": 5281, "key": 5282, "\u0120pregnant": 5283, "\u0120spots": 5284, "ante": 5285, "\u0120academic": 5286, "\u0120initiatives": 5287, "\u0120secured": 5288, "\u0120CL": 5289, "ils": 5290, "\u0120anticipated": 5291, "\u0120involvement": 5292, "\u0120Make": 5293, "\u0120insisted": 5294, "\u0120Wales": 5295, "\u0120clothing": 5296, "\u0120tracks": 5297, "\u0120symptoms": 5298, "\u0120plate": 5299, "\u0120NY": 5300, "\u0120retailers": 5301, "\u0120Pan": 5302, "\u0120fled": 5303, "\u0120quoted": 5304, "\u0120saved": 5305, "\u0120Carter": 5306, "\u0120teaching": 5307, "\u0120Tokyo": 5308, "\u0120Cr": 5309, "\u0120Six": 5310, "\u0120Picture": 5311, "\u0120recover": 5312, "\u0120comedy": 5313, "ree": 5314, "\u0120strikes": 5315, "\u0120Sanders": 5316, "sel": 5317, "\u0120graduate": 5318, "\u0120pending": 5319, "St": 5320, "\u0120warrant": 5321, "\u0120honest": 5322, "\u0120GM": 5323, "\u0120noticed": 5324, "\u0120Galaxy": 5325, "ider": 5326, "\u0120proposals": 5327, "\u0120wore": 5328, "\u0120indeed": 5329, "EM": 5330, "\u0120Channel": 5331, "ances": 5332, "\u0120Brady": 5333, "86": 5334, "\u0120gotten": 5335, "\u0120throwing": 5336, "\u0120Leader": 5337, "\u0120Video": 5338, "71": 5339, "\u0120welcomed": 5340, "NEW": 5341, "\u0120fairly": 5342, "\u0120promises": 5343, "\u0120Silver": 5344, "\u0120rape": 5345, "\u0120opener": 5346, "ares": 5347, "\u0120Sir": 5348, "making": 5349, "\u0120cur": 5350, "\u0120rooms": 5351, "73": 5352, "\u0120amounts": 5353, "\u0120Industry": 5354, "\u0120Dar": 5355, "\u012062": 5356, "ted": 5357, "\u0120abroad": 5358, "\u0120Maybe": 5359, "\u0120readers": 5360, "oke": 5361, "\u0120publication": 5362, "\u0120Jean": 5363, "\u0120operator": 5364, "\u0120Having": 5365, "\u0120Mil": 5366, "life": 5367, "\u0120generate": 5368, "\u0120Craig": 5369, "\u0120Mass": 5370, "\u0120Bh": 5371, "\u0120requested": 5372, "\u0120crazy": 5373, "\u0120Space": 5374, "\u0120copy": 5375, "\u0120export": 5376, "\u0120context": 5377, "\u0120br": 5378, "62": 5379, "\u0120Robinson": 5380, "\u0120cyber": 5381, "ENT": 5382, "BI": 5383, "arg": 5384, "\u0120speaker": 5385, "\u0120dramatic": 5386, "\u0120Ol": 5387, "\u0120Mill": 5388, "\u0120trained": 5389, "\u0120editing": 5390, "\u0120salary": 5391, "\u0120directors": 5392, "\u0120explore": 5393, "\u0120lucky": 5394, "\u0120prominent": 5395, "\u0120brothers": 5396, "\u0120neck": 5397, "icht": 5398, "\u0120Watson": 5399, "born": 5400, "\u0120proven": 5401, "\u0120principal": 5402, "\u0120edition": 5403, "Ed": 5404, "\u0120switch": 5405, "maker": 5406, "\u0120relative": 5407, "mi": 5408, "\u0120Bruce": 5409, "ho": 5410, "\u0120Scottish": 5411, "water": 5412, "\u0120Sport": 5413, "\u0120Kings": 5414, "\u0120Collins": 5415, "adi": 5416, "\u0120celebrated": 5417, "\u0120clothes": 5418, "\u0120sunny": 5419, "\u0120Charlotte": 5420, "ees": 5421, "\u0120scenes": 5422, "\u0120Data": 5423, "\u0120wounded": 5424, "\u0120unusual": 5425, "\u0120realized": 5426, "\u0120Plan": 5427, "\u0120Trans": 5428, "\u0120FC": 5429, "\u0120letters": 5430, "\u0120alerts": 5431, "\u0120Warren": 5432, "DS": 5433, "oss": 5434, "pping": 5435, "\u0120suspension": 5436, "\u0120benchmark": 5437, "\u0120Acc": 5438, "\u0120alert": 5439, "\u0120passion": 5440, "\u0120Est": 5441, "\u0120latter": 5442, "\u0120stability": 5443, "\u0120arts": 5444, "\u0120pursue": 5445, "\u0120Season": 5446, "\u0120fields": 5447, "\u0120method": 5448, "63": 5449, "\u0120folks": 5450, "\u0120exclusive": 5451, "\u0120crews": 5452, "\u0120sessions": 5453, "\u0120Major": 5454, "\u0120Mount": 5455, "\u0120map": 5456, "\u0120=": 5457, "\u0120situations": 5458, "\u0120Berlin": 5459, "rey": 5460, "\u0120dates": 5461, "\u0120sheet": 5462, "\u0120Lo": 5463, "\u0120fighters": 5464, "\u0120Mart": 5465, "\u0120atmosphere": 5466, "\u0120illness": 5467, "\u0120competing": 5468, "\u0120Christopher": 5469, "\u0120Roy": 5470, "mm": 5471, "iano": 5472, "\u0120ge": 5473, "\u0120Rams": 5474, "\u0120conversations": 5475, "\u0120Pa": 5476, "\u0120Tel": 5477, "\u0120appreciate": 5478, "78": 5479, "\u0120Total": 5480, "low": 5481, "\u0120Stone": 5482, "\u0120opposite": 5483, "\u0120barrel": 5484, "\u0120developers": 5485, "\u0120express": 5486, "\u0120highs": 5487, "which": 5488, "par": 5489, "\u0120Vietnam": 5490, "\u0120blocks": 5491, "\u0120recording": 5492, "\u0120adjusted": 5493, "\u0120ret": 5494, "\u0120AR": 5495, "\u0120militants": 5496, "\u0120innovative": 5497, "\u0120Ghana": 5498, "FR": 5499, "\u0120fantastic": 5500, "\u0120mortgage": 5501, "ando": 5502, "\u0120Lane": 5503, "ises": 5504, "\u0120\u00c2": 5505, "\u0120homeless": 5506, "\u0120Kal": 5507, "\u0120approached": 5508, "\u0120rounds": 5509, "\u0120margins": 5510, "ament": 5511, "\u0120Motor": 5512, "\u0120encouraging": 5513, "\u00c2\u0143": 5514, "uru": 5515, "\u0120handling": 5516, "\u0120Massachusetts": 5517, "\u0120planet": 5518, "\u0120Spring": 5519, "\u0120Bon": 5520, "gu": 5521, "Beat": 5522, "\u0120drawing": 5523, "\u0120Phoenix": 5524, "very": 5525, "aid": 5526, "\u0120Ste": 5527, "\u0120Entertainment": 5528, "\u0120Ron": 5529, "\u0120assigned": 5530, "\u0120SA": 5531, "News": 5532, "\u0120interviews": 5533, "\u0120Oh": 5534, "media": 5535, "vel": 5536, "\u0120permission": 5537, "\u0120transactions": 5538, "\u0120traders": 5539, "\u0120solo": 5540, "\u0120provincial": 5541, "\u0120suggesting": 5542, "\u00a1": 5543, "\u0120diverse": 5544, "\u012067": 5545, "\u0120ranks": 5546, "\u0120Fre": 5547, "\u0120favourite": 5548, "\u012063": 5549, "\u0120differences": 5550, "\u0120targeting": 5551, "\u0120actors": 5552, "\u012076": 5553, "icated": 5554, "\u0120collect": 5555, "akes": 5556, "war": 5557, "\u0120contained": 5558, "ches": 5559, "\u0120library": 5560, "\u0120segments": 5561, "\u0120Line": 5562, "\u00c3\u00aa": 5563, "ual": 5564, "\u0120bags": 5565, "\u0120factory": 5566, "\u0120ear": 5567, "\u0120somewhat": 5568, "\u0120rail": 5569, "\u0120UP": 5570, "ula": 5571, "\u0120Niger": 5572, "\u0120las": 5573, "\u0120implementation": 5574, "\u0120emails": 5575, "kel": 5576, "wing": 5577, "\u0120advised": 5578, "--": 5579, "istic": 5580, "\u0120depth": 5581, "\u0120shoes": 5582, "\u0120Jennifer": 5583, "\u0120venue": 5584, "\u0120contain": 5585, "\u0120highlights": 5586, "\u0120capabilities": 5587, "\u0120processes": 5588, "\u0120tradition": 5589, "\u0120contacted": 5590, "\u0120producing": 5591, "\u0120trail": 5592, "rem": 5593, "\u0120600": 5594, "\u012068": 5595, "AA": 5596, "\u0120Ba": 5597, "\u0120Such": 5598, "\u0120Tyler": 5599, "ipp": 5600, "\u0120survived": 5601, "ami": 5602, "\u0120Continue": 5603, "\u0120capture": 5604, "bi": 5605, "61": 5606, "96": 5607, "\u0120threatening": 5608, "\u0120keen": 5609, "dale": 5610, "\u0120trailer": 5611, "\u0120stages": 5612, "\u0120Gordon": 5613, "\u0120finishing": 5614, "\u0120legislative": 5615, "\u0120useful": 5616, "\u0120Greek": 5617, "ald": 5618, "\u0120grounds": 5619, "\u0120Du": 5620, "storms": 5621, "ills": 5622, "\u0120expense": 5623, "\u0120detained": 5624, "Today": 5625, "\u0120diet": 5626, "\u0120wood": 5627, "\u0120Cameron": 5628, "\u0120thrown": 5629, "\u0120cricket": 5630, "\u0120ideal": 5631, "with": 5632, "\u0120teammates": 5633, "ours": 5634, "\u0120projected": 5635, "\u0120personally": 5636, "\u0120Boy": 5637, "rom": 5638, "\u0120Philippines": 5639, "win": 5640, "ges": 5641, "\u0120counties": 5642, "\u0120Baker": 5643, "\u0120prosecutor": 5644, "\u0120roof": 5645, "met": 5646, "\u0120partly": 5647, "\u0120Moon": 5648, "eman": 5649, "\u0120focusing": 5650, "\u0120fishing": 5651, "than": 5652, "\u0120Jeremy": 5653, "\u0120Bad": 5654, "ais": 5655, "\u0120controls": 5656, "\u0120tonnes": 5657, "\u0120shall": 5658, "\u012061": 5659, "\u0120gathering": 5660, "\u0120ERA": 5661, "\u0120presidency": 5662, "\u012085": 5663, "\u0120Gas": 5664, "\u0120scenario": 5665, "\u0120quarters": 5666, "\u0120ang": 5667, "\u0120settled": 5668, "\u0120Commerce": 5669, "\u0120anybody": 5670, "\u0120garden": 5671, "\u0120Library": 5672, "\u0120bet": 5673, "\u0120topic": 5674, "olo": 5675, "\u0120intense": 5676, "87": 5677, "\u0120links": 5678, "\u0120med": 5679, "\u0120AG": 5680, "\u0120flooding": 5681, "\u0120Murphy": 5682, "PM": 5683, "\u0120finds": 5684, "\u0120sensitive": 5685, "pped": 5686, "\u0120completion": 5687, "\u0120minority": 5688, "\u0120von": 5689, "\u0120striking": 5690, "rich": 5691, "\u0120bars": 5692, "\u0120efficient": 5693, "\u0120contributions": 5694, "\u0120visits": 5695, "\u0120attract": 5696, "\u0120Malaysia": 5697, "\u0120REL": 5698, "\u0120opens": 5699, "\u0120essentially": 5700, "\u0120reasonable": 5701, "\u0120sentiment": 5702, "\u0120Melbourne": 5703, "\u0120fitness": 5704, "\u0120frequently": 5705, "\u0120Rangers": 5706, "\u0120museum": 5707, "\u0120DNA": 5708, "\u0120contrast": 5709, "\u0120Adams": 5710, "\u0120Win": 5711, "\u0120falls": 5712, "\u0120imposed": 5713, "250": 5714, "ood": 5715, "\u0120Rio": 5716, "\u0120choices": 5717, "\u0120yellow": 5718, "rin": 5719, "ben": 5720, "\u0120Staff": 5721, "\u0120Indonesia": 5722, "\u0120carries": 5723, "\u0120tourism": 5724, "UM": 5725, "\u0120Orange": 5726, "sell": 5727, "\u0120resolve": 5728, "\u0120Mumbai": 5729, "\u0120pan": 5730, "\u0120implement": 5731, "\u0120midfielder": 5732, "OP": 5733, "\u0120tensions": 5734, "\u0120800": 5735, "\u0120Lord": 5736, "\u0120Light": 5737, "\u0120lies": 5738, "\u00c3\u00a9s": 5739, "\u0120participation": 5740, "\u0120tries": 5741, "\u0120sheriff": 5742, "degree": 5743, "\u0120congressional": 5744, "\u0120mode": 5745, "\u0120regulation": 5746, "\u0120Jacob": 5747, "\u0120Crown": 5748, "\u0120bowl": 5749, "\u0120Mississippi": 5750, "\u0120theft": 5751, "\u0120Kingdom": 5752, "\u0120resort": 5753, "\u0120royal": 5754, "\u0120unemployment": 5755, "PP": 5756, "\u0120nomination": 5757, "\u0120TR": 5758, "\u0120behaviour": 5759, "bank": 5760, "\u0120Forest": 5761, "WASHINGTON": 5762, "\u0120Others": 5763, "\u0120slowly": 5764, "\u0120menu": 5765, "vo": 5766, "\u0120Sy": 5767, "\u0120Metro": 5768, "\u0120Lisa": 5769, "\u0120registration": 5770, "While": 5771, "\u0120Jesus": 5772, "\u0120250": 5773, "\u0120processing": 5774, "\u0120monetary": 5775, "ape": 5776, "ener": 5777, "\u0120Systems": 5778, "\u0120disappointed": 5779, "\u0120print": 5780, "uy": 5781, "\u0127": 5782, "\u0120demanding": 5783, "\u0120incredibly": 5784, "play": 5785, "\u0120surveillance": 5786, "\u0120Standard": 5787, "\u0120periods": 5788, "\u0120writes": 5789, "\u0120Luke": 5790, "\u0120Palestinian": 5791, "\u0120walks": 5792, "\u0120riding": 5793, "\u0120waters": 5794, "\u0120Sox": 5795, "\u0120traveling": 5796, "\u0120tap": 5797, "\u0120organized": 5798, "\u0120resource": 5799, "\u0120angry": 5800, "\u0120timing": 5801, "\u0120empty": 5802, "\u0120milk": 5803, "\u0120therapy": 5804, "\u0120Brandon": 5805, "mon": 5806, "\u0120nationwide": 5807, "\u0120novel": 5808, "\u0120Storm": 5809, "iet": 5810, "\u0120Bre": 5811, "\u0120begun": 5812, "\u0120diplomatic": 5813, "\u0120ads": 5814, "\u0120DC": 5815, "\u0120Ob": 5816, "\u0120Montreal": 5817, "\u0120Down": 5818, "\u0120Milwaukee": 5819, "\u0120meal": 5820, "\u0120Puerto": 5821, "\u0120Mas": 5822, "\u0120joy": 5823, "\u0120departure": 5824, "\u0120Wright": 5825, "\u0120spoken": 5826, "style": 5827, "\u0120Action": 5828, "\u0120Comey": 5829, "\u0120delivering": 5830, "\u0120toll": 5831, "\u0120midnight": 5832, "\u0120Revenue": 5833, "\u0120firing": 5834, "\u0120stunning": 5835, "\u0120kicked": 5836, "\u0120Ottawa": 5837, "\u0120efficiency": 5838, "\u0120Lincoln": 5839, "\u0120taste": 5840, "ez": 5841, "\u0120Weather": 5842, "\u0120Morning": 5843, "\u0120hadn": 5844, "\u0120diversity": 5845, "ily": 5846, "\u0120Ay": 5847, "\u0120argue": 5848, "\u0120error": 5849, "\u0120taught": 5850, "\u0120che": 5851, "\u0120occasion": 5852, "\u0120inc": 5853, "\u0120Orlando": 5854, "\u0120Online": 5855, "\u0120legs": 5856, "\u0120Nation": 5857, "uck": 5858, "\u0120widespread": 5859, "\u0120Ocean": 5860, "\u0120constantly": 5861, "\u0120Latin": 5862, "\u0120comfort": 5863, "\u0120rely": 5864, "uff": 5865, "\u0120Card": 5866, "aring": 5867, "\u0120humans": 5868, "\u0120Thomson": 5869, "aka": 5870, "BIT": 5871, "\u0120Review": 5872, "po": 5873, "\u00c3\u00ba": 5874, "\u0120trucks": 5875, "\u0120forecasts": 5876, "view": 5877, "\u0120longtime": 5878, "\u0120Constitution": 5879, "\u0120reserves": 5880, "bit": 5881, "\u0120stressed": 5882, "\u0120contribution": 5883, "\u0120chicken": 5884, "\u0120DE": 5885, "\u0120fat": 5886, "\u0120Oscar": 5887, "\u0120criticized": 5888, "\u0120testimony": 5889, "\u0120apparent": 5890, "\u0120constant": 5891, "\u0120cabinet": 5892, "\u0120Duke": 5893, "\u0120aspects": 5894, "lic": 5895, "\u0120Vol": 5896, "\u0120wing": 5897, "\u0120reb": 5898, "\u0120Sessions": 5899, "\u0120Smart": 5900, "car": 5901, "\u0120Im": 5902, "\u0120operational": 5903, "\u0120regulators": 5904, "\u0120Jimmy": 5905, "eter": 5906, "\u0120nobody": 5907, "\u0120Marc": 5908, "\u0120literally": 5909, "\u0120resistance": 5910, "\u0120Kam": 5911, "\u0120sexually": 5912, "\u012069": 5913, "uth": 5914, "\u0120viewed": 5915, "\u0120picks": 5916, "\u0120din": 5917, "\u0120talented": 5918, "\u0120tennis": 5919, "\u0120strengthen": 5920, "\u0120gl": 5921, "\u0120Protection": 5922, "\u0120installed": 5923, "ways": 5924, "\u0120Campbell": 5925, "\u0120Portland": 5926, "\u0120intent": 5927, "\u0120Palace": 5928, "\u0120secondary": 5929, "\u0120locked": 5930, "\u0120PA": 5931, "\u0120landed": 5932, "\u0120length": 5933, "\u0120boosted": 5934, "\u0120purchases": 5935, "\u0120command": 5936, "\u0120Asked": 5937, "\u0120spaces": 5938, "\u0120iconic": 5939, "\u0120recommend": 5940, "\u0120duties": 5941, "\u0120seized": 5942, "\u0120delayed": 5943, "FA": 5944, "AND": 5945, "daq": 5946, "\u0120hiring": 5947, "\u0120occur": 5948, "DC": 5949, "\u0120Mus": 5950, "\u0120ag": 5951, "\u0120hopefully": 5952, "\u0120Penn": 5953, "ards": 5954, "\u0120striker": 5955, "\u0120rent": 5956, "\u0120Ty": 5957, "\u0120Buffalo": 5958, "\u0120Ky": 5959, "\u0120hike": 5960, "pper": 5961, "\u0120120": 5962, "\u0120op": 5963, "\u0120wheel": 5964, "\u0120Ian": 5965, "\u0120chart": 5966, "tt": 5967, "\u0120volunteer": 5968, "IG": 5969, "person": 5970, "ight": 5971, "\u0120Book": 5972, "unt": 5973, "\u0120Technologies": 5974, "Now": 5975, "\u0120favour": 5976, "\u0120Gh": 5977, "\u0120Qatar": 5978, "\u0120Dutch": 5979, "\u0120Grant": 5980, "\u0120Ban": 5981, "rel": 5982, "\u0120agreements": 5983, "\u0120educational": 5984, "worth": 5985, "\u0120Ward": 5986, "700": 5987, "\u0120anymore": 5988, "\u0120repair": 5989, "\u0120operators": 5990, "\u0120Li": 5991, "ots": 5992, "\u0120Louisiana": 5993, "\u0120Whether": 5994, "\u0120odds": 5995, "\u0120noon": 5996, "\u0120Str": 5997, "\u0120fail": 5998, "iser": 5999, "\u0120forever": 6000, "\u0120recall": 6001, "\u0120Po": 6002, "\u0120Hot": 6003, "\u0120designer": 6004, "ido": 6005, "LL": 6006, "\u0120Control": 6007, "\u0120survive": 6008, "iam": 6009, "\u0120organisation": 6010, "\u0120Work": 6011, "\u0120wider": 6012, "\u0120tank": 6013, "work": 6014, "\u0120AS": 6015, "\u0120posting": 6016, "\u0120suddenly": 6017, "MC": 6018, "\u0120AL": 6019, "\u0120Professor": 6020, "\u0120Coach": 6021, "\u0120rushed": 6022, "\u0120afraid": 6023, "\u0120activist": 6024, "that": 6025, "\u0120Film": 6026, "\u0120backing": 6027, "\u0120household": 6028, "\u0120signal": 6029, "\u0120accurate": 6030, "str": 6031, "\u0120Thread": 6032, "\u0120Bears": 6033, "ATION": 6034, "\u0120Alliance": 6035, "\u0120McDonald": 6036, "\u0120Venezuela": 6037, "ogg": 6038, "\u0120Windows": 6039, "makers": 6040, "\u0120utility": 6041, "\u0120rapidly": 6042, "\u0120attractive": 6043, "\u0120pa": 6044, "\u0120Larry": 6045, "\u0120misconduct": 6046, "\u0120freshman": 6047, "\u0120qualified": 6048, "\u0120cleared": 6049, "\u0120crashed": 6050, "\u0120participating": 6051, "\u0120pages": 6052, "\u0120highlight": 6053, "\u0120dialogue": 6054, "\u0120Alberta": 6055, "\u0120ca": 6056, "\u0120witnesses": 6057, "ables": 6058, "\u0120followers": 6059, "\u0120ensuring": 6060, "\u0120promoting": 6061, "\u0120searching": 6062, "\u0120remote": 6063, "\u0120clash": 6064, "\u0120firefighters": 6065, "\u0120teen": 6066, "\u0120Place": 6067, "\u0120Note": 6068, "\u0120regardless": 6069, "ult": 6070, "oney": 6071, "ander": 6072, "ional": 6073, "ining": 6074, "\u0120demanded": 6075, "\u0120Communications": 6076, "\u0120consideration": 6077, "TC": 6078, "\u0120Southeast": 6079, "aga": 6080, "\u0120Garden": 6081, "inger": 6082, "ht": 6083, "\u0120branch": 6084, "\u0120mouth": 6085, "\u0120audio": 6086, "\u0120raw": 6087, "\u0120coordinator": 6088, "\u0120exact": 6089, "\u0120Han": 6090, "\u0120delays": 6091, "\u0120Wal": 6092, "\u0120Wells": 6093, "\u0120ng": 6094, "\u0120handful": 6095, "\u0120girlfriend": 6096, "\u0120typical": 6097, "\u0120Wayne": 6098, "\u0120Franklin": 6099, "\u0120constitutional": 6100, "\u0120Chance": 6101, "\u0120blamed": 6102, "rim": 6103, "\u0120preliminary": 6104, "\u0120lie": 6105, "da": 6106, "\u0120Capitol": 6107, "\u0120routine": 6108, "\u0120NASA": 6109, "\u0120tre": 6110, "\u0120Golf": 6111, "\u0120sight": 6112, "\u0120Der": 6113, "\u0120reserve": 6114, "150": 6115, "\u0120speculation": 6116, "\u0120competitors": 6117, "\u0120Macron": 6118, "ony": 6119, "\u0120overtime": 6120, "\u012071": 6121, "\u0120depending": 6122, "\u0120Warner": 6123, "\u0120accusations": 6124, "ius": 6125, "\u0120predicted": 6126, "\u0120Charlie": 6127, "\u0120everywhere": 6128, "\u0120cable": 6129, "\u0120Saint": 6130, "\u0120Region": 6131, "\u0120hero": 6132, "\u0120Emb": 6133, "\u0120kinds": 6134, "\u0120starter": 6135, "\u0120solve": 6136, "\u0120Guard": 6137, "\u0120loves": 6138, "\u0120Douglas": 6139, "\u0120funded": 6140, "\u0120Brent": 6141, "\u0120Anyone": 6142, "\u0120substantial": 6143, "\u0120Marine": 6144, "\u0120Michelle": 6145, "\u0120celebrating": 6146, "\u0120offset": 6147, "\u0120button": 6148, "gg": 6149, "\u0120medicine": 6150, "uri": 6151, "\u0120somewhere": 6152, "PD": 6153, "\u0120mon": 6154, "\u0120fires": 6155, "final": 6156, "oth": 6157, "ined": 6158, "\u0120underway": 6159, "\u0120mistakes": 6160, "\u0120grateful": 6161, "\u0120cheap": 6162, "\u00c8": 6163, "\u012095": 6164, "\u0120violations": 6165, "arr": 6166, "\u0120surprising": 6167, "\u0120ob": 6168, "\u0120NATO": 6169, "\u0120controversy": 6170, "\u0120Sweden": 6171, "\u0120funeral": 6172, "\u0120reviews": 6173, "\u0120promotion": 6174, "TY": 6175, "\u0120liberal": 6176, "\u0120promising": 6177, "\u0120SP": 6178, "How": 6179, "\u0120memories": 6180, "\u0120breast": 6181, "zi": 6182, "ights": 6183, "\u0120pattern": 6184, "\u0120outdoor": 6185, "\u0120Mu": 6186, "\u0120rush": 6187, "\u0120Theresa": 6188, "\u0120Pol": 6189, "\u0120describe": 6190, "\u0120Band": 6191, "\u0120Stewart": 6192, "\u01201999": 6193, "\u0120Raiders": 6194, "mp": 6195, "\u0120procedures": 6196, "\u0120plot": 6197, "\u0120hire": 6198, "used": 6199, "\u01201970": 6200, "\u0120picking": 6201, "\u0120Sim": 6202, "\u0120regard": 6203, "inal": 6204, "backs": 6205, "\u0120Hard": 6206, "\u0120Low": 6207, "\u0120Ac": 6208, "Is": 6209, "\u0120guarantee": 6210, "\u0120Given": 6211, "\u0120beta": 6212, "\u0120Tre": 6213, "\u0120trans": 6214, "\u0120retailer": 6215, "\u0120purposes": 6216, "\u0120Hol": 6217, "\u0120enjoying": 6218, "\u0120brown": 6219, "\u0120Perry": 6220, "\u0120plea": 6221, "MS": 6222, "\u0120Dakota": 6223, "\u0120Parker": 6224, "\u0120commit": 6225, "\u0120Lawrence": 6226, "\u0120Morris": 6227, "ended": 6228, "\u0120virtual": 6229, "\u00c3\u0139": 6230, "\u0120fruit": 6231, "84": 6232, "\u0120Has": 6233, "ishing": 6234, "\u0120dominated": 6235, "\u0120FA": 6236, "\u0120channels": 6237, "\u0120understood": 6238, "\u0120citizen": 6239, "\u0120checks": 6240, "\u0120Kenya": 6241, "\u0120disabled": 6242, "SD": 6243, "\u0120protecting": 6244, "\u0120tweets": 6245, "\u0120sparked": 6246, "\u0120CO": 6247, "\u00a7": 6248, "ori": 6249, "\u0120GDP": 6250, "\u0120Ser": 6251, "\u0120Visit": 6252, "\u0120MS": 6253, "\u0120barely": 6254, "\u0120sand": 6255, "\u0120ap": 6256, "aging": 6257, "\u0120rel": 6258, "\u0120Perhaps": 6259, "\u0120Mourinho": 6260, "\u0120Jets": 6261, "\u0120disclosure": 6262, "\u0120highlighted": 6263, "\u0120implemented": 6264, "\u0120compliance": 6265, "\u0120AB": 6266, "\u0120Assistant": 6267, "\u0120Cape": 6268, "\u0120funny": 6269, "\u0120leverage": 6270, "\u0120machines": 6271, "\u0120ranging": 6272, "\u0120fastest": 6273, "\u0120Roberts": 6274, "\u0120Policy": 6275, "gar": 6276, "\u0120collapse": 6277, "\u0120Through": 6278, "\u0120robbery": 6279, "\u0120Hay": 6280, "\u0120elite": 6281, "\u0120Digital": 6282, "\u0120Fun": 6283, "\u0120Alan": 6284, "ement": 6285, "\u0120mit": 6286, "\u0120spin": 6287, "\u0120listening": 6288, "\u0120Doug": 6289, "\u0120Saints": 6290, "\u0120interior": 6291, "\u0120enhance": 6292, "\u0120Cardinals": 6293, "ever": 6294, "\u0120robust": 6295, "\u0120inform": 6296, "\u0120suffer": 6297, "book": 6298, "\u0120Muslims": 6299, "\u0120agriculture": 6300, "\u0120km": 6301, "\u0120divers": 6302, "\u00c3\u00b1": 6303, "\u0120Reg": 6304, "\u0120equivalent": 6305, "\u0120craft": 6306, "\u0120settle": 6307, "\u0120contains": 6308, "\u0120Mack": 6309, "\u0120Dis": 6310, "\u0120Fore": 6311, "\u0120Sudan": 6312, "\u0120Mail": 6313, "\u0120Brooklyn": 6314, "izer": 6315, "bn": 6316, "\u0120hundred": 6317, "\u0120exhibition": 6318, "\u0120Have": 6319, "vin": 6320, "\u0120civilians": 6321, "\u0120Cincinnati": 6322, "Some": 6323, "\u0120SE": 6324, "\u0120bat": 6325, "\u0120Ins": 6326, "\u0120calm": 6327, "\u0120tone": 6328, "\u0120normally": 6329, "\u0120seeks": 6330, "\u0120Ass": 6331, "\u0120membership": 6332, "\u0120annually": 6333, "\u0120employers": 6334, "CO": 6335, "\u0120complicated": 6336, "\u0120headlines": 6337, "\u0120Labor": 6338, "\u0120lifestyle": 6339, "\u0120Ren": 6340, "\u0120Rich": 6341, "cent": 6342, "ude": 6343, "\u0120awesome": 6344, "\u0120paint": 6345, "\u0120rolling": 6346, "\u0120walls": 6347, "\u0120lab": 6348, "\u0120tourists": 6349, "care": 6350, "\u0120gear": 6351, "izz": 6352, "\u0120cream": 6353, "\u0120Tro": 6354, "ices": 6355, "\u0120pack": 6356, "\u0120diseases": 6357, "\u0120Speaker": 6358, "\u0120Officers": 6359, "\u0120sky": 6360, "83": 6361, "\u0120BE": 6362, "\u0120categories": 6363, "\u0120indicate": 6364, "\u0120ru": 6365, "\u0120Sony": 6366, "\u0120Dun": 6367, "ocks": 6368, "\u0120concrete": 6369, "\u0120Madison": 6370, "\u0120Sab": 6371, "IV": 6372, "\u0120observed": 6373, "ria": 6374, "\u0120interim": 6375, "\u0120encounter": 6376, "ista": 6377, "\u0120anger": 6378, "\u0120rapid": 6379, "mail": 6380, "\u0120destination": 6381, "\u0129": 6382, "\u0120breaks": 6383, "rell": 6384, "\u0120Chase": 6385, "\u0120attorneys": 6386, "\u0120rolled": 6387, "\u0120Springs": 6388, "\u0120Village": 6389, "TO": 6390, "HS": 6391, "\u0120campaigns": 6392, "ologist": 6393, "\u0120Tax": 6394, "\u0120III": 6395, "\u0120teach": 6396, "\u0120provision": 6397, "\u0120rem": 6398, "\u0120shirt": 6399, "\u0120deployed": 6400, "\u0120guidelines": 6401, "\u0120av": 6402, "zer": 6403, "\u0120rushing": 6404, "94": 6405, "place": 6406, "Man": 6407, "\u0120divided": 6408, "\u0120Gun": 6409, "\u0120windows": 6410, "\u0120components": 6411, "aba": 6412, "\u0120Switzerland": 6413, "election": 6414, "\u0120Tampa": 6415, "\u0120Ari": 6416, "\u00c3\u00a1s": 6417, "\u0120highway": 6418, "\u0120acres": 6419, "\u0120crown": 6420, "known": 6421, "\u0120inquiry": 6422, "url": 6423, "\u0120expertise": 6424, "\u0120praised": 6425, "yer": 6426, "\u0120conclusion": 6427, "\u0120abortion": 6428, "\u0120lady": 6429, "\u0120tribute": 6430, "\u0120unveiled": 6431, "\u0120beaten": 6432, "TE": 6433, "\u0120Mot": 6434, "unk": 6435, "\u0120triple": 6436, "\u0120forcing": 6437, "\u0120Tickets": 6438, "uit": 6439, "\u0120iron": 6440, "\u0120scientific": 6441, "\u0120IP": 6442, "\u0120diagnosed": 6443, "\u0120ocean": 6444, "wide": 6445, "\u0120Cowboys": 6446, "LC": 6447, "\u0120methods": 6448, "\u0120Find": 6449, "\u0120Dean": 6450, "\u0120fundamental": 6451, "\u0120Gill": 6452, "\u0120feelings": 6453, "IO": 6454, "hu": 6455, "\u0120feedback": 6456, "ote": 6457, "\u0120duo": 6458, "fully": 6459, "get": 6460, "\u0120proof": 6461, "story": 6462, "\u0120longest": 6463, "\u0120shops": 6464, "\u0120Jong": 6465, "\u0120Cro": 6466, "\u0120Hawaii": 6467, "91": 6468, "\u0120Jake": 6469, "\u0120Susan": 6470, "\u0120submit": 6471, "rav": 6472, "\u0120modest": 6473, "\u0120lit": 6474, "\u0120attempting": 6475, "\u0120sits": 6476, "\u0120addressing": 6477, "93": 6478, "\u0120Bi": 6479, "\u0120lying": 6480, "\u0120Organization": 6481, "\u0120Oak": 6482, "oli": 6483, "\u0120fatal": 6484, "\u0120mountain": 6485, "val": 6486, "lu": 6487, "\u0120Maine": 6488, "\u0120charging": 6489, "\u0120resigned": 6490, "illo": 6491, "\u0120recommendation": 6492, "party": 6493, "\u0120Web": 6494, "\u0120Panthers": 6495, "\u0120noise": 6496, "\u0120Brussels": 6497, "awa": 6498, "\u0120ambassador": 6499, "\u0120accessible": 6500, "\u0120Calgary": 6501, "idd": 6502, "\u0120Airlines": 6503, "gr": 6504, "\u0120nu": 6505, "roy": 6506, "\u0120Mars": 6507, "\u0120Poland": 6508, "\u0120Jerry": 6509, "ados": 6510, "\u0120Rico": 6511, "\u0120Mir": 6512, "\u0120Fin": 6513, "ious": 6514, "\u0120packed": 6515, "\u0120insider": 6516, "President": 6517, "\u0120Bull": 6518, "\u0120Yemen": 6519, "\u0120Connecticut": 6520, "\u012073": 6521, "\u0120departments": 6522, "\u0120organic": 6523, "\u0120Summer": 6524, "\u0120Bet": 6525, "ste": 6526, "zo": 6527, "rat": 6528, "\u0120alliance": 6529, "\u0120intervention": 6530, "wan": 6531, "\u0120OR": 6532, "\u0120defined": 6533, "\u0120\u00c3\u0142": 6534, "\u0120Chiefs": 6535, "\u0120knocked": 6536, "ared": 6537, "\u0120holes": 6538, "\u0120pulling": 6539, "\u0120Todd": 6540, "\u0120Jamie": 6541, "\u0120Sher": 6542, "\u0120signature": 6543, "\u0120Sur": 6544, "\u0120gym": 6545, "\u0120Vladimir": 6546, "\u0120Thailand": 6547, "\u0120gaming": 6548, "\u0120saving": 6549, "ceive": 6550, "82": 6551, "\u0120Bern": 6552, "\u0120Did": 6553, "\u0120hardware": 6554, "ished": 6555, "\u0120conspiracy": 6556, "ANS": 6557, "\u0120Intelligence": 6558, "\u0120assembly": 6559, "\u0120101": 6560, "\u0120concise": 6561, "\u0120Manhattan": 6562, "\u0120belief": 6563, "\u0120surge": 6564, "\u0120deserve": 6565, "\u0120consistently": 6566, "\u0120Nor": 6567, "okes": 6568, "\u00f0\u0141": 6569, "ME": 6570, "\u0120Asset": 6571, "\u0120substance": 6572, "\u0120prefer": 6573, "\u0120burning": 6574, "\u0120Nik": 6575, "ook": 6576, "\u0120Pinterest": 6577, "\u0120boyfriend": 6578, "\u0120Hal": 6579, "\u0120Merkel": 6580, "\u0120introduce": 6581, "\u0120LinkedIn": 6582, "\u0120Full": 6583, "\u0120Farm": 6584, "\u0120childhood": 6585, "\u0120Transportation": 6586, "\u0120terrible": 6587, "du": 6588, "\u0120intention": 6589, "\u0120seemingly": 6590, "elle": 6591, "\u0120foods": 6592, "\u0120titled": 6593, "\u0120dual": 6594, "\u0120import": 6595, "\u0120developer": 6596, "UL": 6597, "ington": 6598, "\u0120Delta": 6599, "?'": 6600, "iness": 6601, "\u0120quit": 6602, "\u0120Garcia": 6603, "\u0120Sri": 6604, "\u0120hip": 6605, "\u0120Brazilian": 6606, "elt": 6607, "ively": 6608, "\u0120structures": 6609, "\u0120labour": 6610, "\u0120neighbors": 6611, "\u0120till": 6612, "\u0120soil": 6613, "\u0120dropping": 6614, "\u0120nominee": 6615, "\u0120meets": 6616, "92": 6617, "rant": 6618, "isa": 6619, "\u0120luck": 6620, "aa": 6621, "jet": 6622, "\u0120Tor": 6623, "\u0120Crime": 6624, "\u0120lane": 6625, "\u0120flu": 6626, "\u0120launching": 6627, "\u0120Autom": 6628, "aks": 6629, "\u0120universities": 6630, "\u0120pollution": 6631, "\u0120Advis": 6632, "\u0120Mall": 6633, "ls": 6634, "\u0120deeper": 6635, "\u0120repeated": 6636, "\u0120meanwhile": 6637, "\u0120chip": 6638, "\u0120outlets": 6639, "\u0120liked": 6640, "\u0120sal": 6641, "\u0120welfare": 6642, "ago": 6643, "\u0120makers": 6644, "ving": 6645, "fer": 6646, "\u0120overcome": 6647, "mb": 6648, "\u0120shocked": 6649, "akers": 6650, "\u0120nonprofit": 6651, "\u0120donated": 6652, "eral": 6653, "\u0120resume": 6654, "\u0120logo": 6655, "\u0120subscription": 6656, "\u012074": 6657, "ela": 6658, "\u0120aspect": 6659, "html": 6660, "\u0120sorry": 6661, "\u0120upgrade": 6662, "\u0120stance": 6663, "\u0120fr": 6664, "\u0120papers": 6665, "\u0120attacking": 6666, "\u0120meaningful": 6667, "81": 6668, "\u0120Weinstein": 6669, "\u0120creates": 6670, "\u0120honour": 6671, "\u0120Reply": 6672, "oph": 6673, "\u0120march": 6674, "\u0120smile": 6675, "\u0120comparison": 6676, "will": 6677, "\u0120Sanchez": 6678, "\u0120voter": 6679, "\u0120theory": 6680, "\u0120equally": 6681, "\u0120Roger": 6682, "\u0120perfectly": 6683, "\u0120landing": 6684, "\u0120billions": 6685, "\u0120Bloomberg": 6686, "\u0120permit": 6687, "\u0120finals": 6688, "\u0120racial": 6689, "\u0120pregnancy": 6690, "iled": 6691, "\u0120Federation": 6692, "\u0120forest": 6693, "\u0120tag": 6694, "aul": 6695, "\u0120drinks": 6696, "\u0120(\"": 6697, "\u0120Mobile": 6698, "\u0120touched": 6699, "\u0120clock": 6700, "\u0120reg": 6701, "\u0120asylum": 6702, "igan": 6703, "\u0120senator": 6704, "\u012099": 6705, "\u0120Kumar": 6706, "\u0120skill": 6707, "\u01201998": 6708, "pa": 6709, "\u0120Af": 6710, "\u0120mood": 6711, "ston": 6712, "\u0120hang": 6713, "\u0120MPs": 6714, "Please": 6715, "\u0120Eve": 6716, "\u0120documentary": 6717, "\u0120personality": 6718, "\u0120Cast": 6719, "\u0120discount": 6720, "bing": 6721, "\u0120Boeing": 6722, "\u0120depend": 6723, "\u0120crossing": 6724, "EX": 6725, "\u0120succeed": 6726, "\u0120humanitarian": 6727, "\u0120Muhammad": 6728, "\u0120wages": 6729, "\u0120column": 6730, "\u0120external": 6731, "\u0120statistics": 6732, "\u0120TODAY": 6733, "\u0120trips": 6734, "\u0120ta": 6735, "\u0120penalties": 6736, "\u0120writers": 6737, "\u0120shipping": 6738, "\u0120Indians": 6739, "\u0120salt": 6740, "\u0120Industrial": 6741, "\u0120Yankees": 6742, "\u0120Den": 6743, "\u0120rough": 6744, "\u0120barrels": 6745, "\u0120Hor": 6746, "bert": 6747, "\u0120Dep": 6748, "\u0120resign": 6749, "97": 6750, "\u0120balls": 6751, "\u0120Jun": 6752, "\u0120Bab": 6753, "\u0120associate": 6754, "\u0120string": 6755, "\u0120hub": 6756, "\u0120organ": 6757, "\u0120Marshall": 6758, "\u0120FIFA": 6759, "\u0120Mun": 6760, "ency": 6761, "research": 6762, "\u0120peers": 6763, "\u0120tall": 6764, "\u0120Goldman": 6765, "Don": 6766, "\u0120parade": 6767, "\u0120parks": 6768, "\u0120det": 6769, "\u0120disappointing": 6770, "\u0120reflects": 6771, "\u0120Lakers": 6772, "\u0120files": 6773, "\u0120relatives": 6774, "\u0120USD": 6775, "\u0120Article": 6776, "\u0120custom": 6777, "\u0120Carlos": 6778, "\u0120tracking": 6779, "\u0120maintaining": 6780, "\u0120Cur": 6781, "ardo": 6782, "\u0120Skip": 6783, "\u0120attitude": 6784, "Just": 6785, "\u0120institution": 6786, "\u0120narrow": 6787, "\u0120snap": 6788, "\u0120enterprise": 6789, "\u0120drives": 6790, "\u012077": 6791, "\u0120crop": 6792, "\u0120virus": 6793, "\u0120celebrity": 6794, "\u0120economies": 6795, "ued": 6796, "\u0120sum": 6797, "\u0120Dubai": 6798, "\u0120Insurance": 6799, "\u0139": 6800, "ury": 6801, "\u0120Unfortunately": 6802, "\u0120closure": 6803, "ota": 6804, "\u0120Philip": 6805, "oms": 6806, "\u0120investigated": 6807, "\u0120generations": 6808, "\u0120ETF": 6809, "\u0120Keith": 6810, "\u0120Later": 6811, "isk": 6812, "\u0120preferred": 6813, "\u0120default": 6814, "\u0120towns": 6815, "\u0120Rod": 6816, "\u0120Die": 6817, "\u0120integrated": 6818, "\u0120acquiring": 6819, "\u0120voices": 6820, "\u0120ser": 6821, "\u0120presents": 6822, "\u0120BR": 6823, "\u0120Emergency": 6824, "\u0120religion": 6825, "HA": 6826, "\u0120responding": 6827, "\u0120Things": 6828, "\u0120beef": 6829, "\u0120Without": 6830, "urd": 6831, "\u0120Carl": 6832, "\u0120administrative": 6833, "\u0120Which": 6834, "\u0120challenged": 6835, "\u0120cooking": 6836, "ivid": 6837, "\u0120Fer": 6838, "\u0120tremendous": 6839, "\u0120Terry": 6840, "iri": 6841, "CS": 6842, "\u0120Junior": 6843, "\u0120Reddit": 6844, "\u0120tea": 6845, "\u0120accounting": 6846, "lan": 6847, "\u0120detention": 6848, "\u0120replied": 6849, "SI": 6850, "\u0120Hel": 6851, "ns": 6852, "\u0120Prof": 6853, "\u0120ramp": 6854, "\u0120Conservative": 6855, "\u0120attendance": 6856, "\u0120specialist": 6857, "\u0120Final": 6858, "\u0120advertisement": 6859, "\u0120acquire": 6860, "\u0120WhatsApp": 6861, "\u0120workforce": 6862, "\u0120Calif": 6863, "\u0120speakers": 6864, "\u0120EPA": 6865, "\u0120conviction": 6866, "hire": 6867, "\u0120Fisher": 6868, "\u0120Intel": 6869, "\u0120bin": 6870, "\u0120Was": 6871, "\u0120earth": 6872, "vi": 6873, "\u0120hurricane": 6874, "\u0120holidays": 6875, "\u0120assume": 6876, "\u0120involve": 6877, "\u0120dynamic": 6878, "\u0120Gre": 6879, "\u0120item": 6880, "\u0120pound": 6881, "\u0120anxiety": 6882, "\u0120Print": 6883, "rop": 6884, "\u0120automatically": 6885, "\u0120discrimination": 6886, "\u0120Lam": 6887, "\u0120Coll": 6888, "\u0120impressed": 6889, "\u0120involves": 6890, "\u0120Les": 6891, "\u0120Tri": 6892, "\u0120Look": 6893, "\u0120iOS": 6894, "\u0120grab": 6895, "\u0120Angel": 6896, "\u0120stops": 6897, "\u0120Pay": 6898, "\u0120ECB": 6899, "\u0120bunch": 6900, "\u0120letting": 6901, "ele": 6902, "\u0120Additionally": 6903, "\u0120boards": 6904, "NC": 6905, "\u0120tragedy": 6906, "\u0120pink": 6907, "\u0120gonna": 6908, "ones": 6909, "\u0120rev": 6910, "\u0120Independent": 6911, "\u0120Cambridge": 6912, "\u0120Pence": 6913, "\u0120prosecution": 6914, "\u0120deputies": 6915, "\u0120Ahmed": 6916, "\u0120lows": 6917, "\u0120Amy": 6918, "\u0120Building": 6919, "mark": 6920, "\u0120smooth": 6921, "\u0120sole": 6922, "\u0120wanting": 6923, "\u0120Heart": 6924, "\u0120obtain": 6925, "\u0120Bus": 6926, "\u0120exchanges": 6927, "friendly": 6928, "\u0120label": 6929, "elect": 6930, "\u0120Companies": 6931, "owing": 6932, "\u0120CB": 6933, "RI": 6934, "\u0120Master": 6935, "\u0120liquid": 6936, "\u0120Danny": 6937, "\u0120proceeds": 6938, "\u0120Laura": 6939, "card": 6940, "\u0120tears": 6941, "\u0120exploration": 6942, "\u0120depression": 6943, "ken": 6944, "\u0120Fe": 6945, "\u0120lending": 6946, "\u0120Youth": 6947, "ality": 6948, "NS": 6949, "\u0120moon": 6950, "\u0120Taiwan": 6951, "\u0120struggles": 6952, "\u0120discovery": 6953, "\u0120qualify": 6954, "\u0120wireless": 6955, "alia": 6956, "\u0120witnessed": 6957, "\u0120height": 6958, "\u0120Guy": 6959, "left": 6960, "KE": 6961, "\u0120foul": 6962, "\u0120Mohammed": 6963, "\u0120grass": 6964, "\u0120Non": 6965, "\u0120swim": 6966, "\u0120brilliant": 6967, "you": 6968, "\u0120Flynn": 6969, "\u0120singing": 6970, "eria": 6971, "UT": 6972, "\u0120McCain": 6973, "\u0120Sep": 6974, "\u0120Wars": 6975, "\u0120burden": 6976, "\u0120pas": 6977, "\u0120abandoned": 6978, "\u0120int": 6979, "\u0120Turner": 6980, "\u0120collective": 6981, "\u0120Environmental": 6982, "\u0120Students": 6983, "\u0120offerings": 6984, "\u0120resignation": 6985, "\u0120explosion": 6986, "\u0120Koh": 6987, "ager": 6988, "\u0120throws": 6989, "\u0120asks": 6990, "light": 6991, "\u0120anyway": 6992, "\u0120yard": 6993, "\u0120carrier": 6994, "\u0120waves": 6995, "backed": 6996, "TR": 6997, "oud": 6998, "\u0120breach": 6999, "\u0120dated": 7000, "\u0120dressed": 7001, "\u0120Dodgers": 7002, "oles": 7003, "\u012078": 7004, "\u0120reads": 7005, "\u0120predict": 7006, "\u0120Jerusalem": 7007, "\u0120PT": 7008, "\u0120crack": 7009, "yan": 7010, "\u0120nights": 7011, "eline": 7012, "\u0120convinced": 7013, "\u0120lock": 7014, "\u0120carefully": 7015, "\u0120Mercedes": 7016, "\u0120ultimate": 7017, "\u0120dist": 7018, "\u0120slight": 7019, "\u0120Edwards": 7020, "\u0120swing": 7021, "iling": 7022, "\u0120knife": 7023, "\u0120Nashville": 7024, "IF": 7025, "inder": 7026, "udd": 7027, "\u0120senators": 7028, "\u0120Further": 7029, "\u0120Xi": 7030, "\u0120str": 7031, "\u0120Od": 7032, "days": 7033, "\u0120comm": 7034, "\u0120verdict": 7035, "\u0120confirmation": 7036, "king": 7037, "\u0120CS": 7038, "\u0120advocates": 7039, "\u0120pride": 7040, "\u0120memorial": 7041, "ams": 7042, "erman": 7043, "\u0120teenager": 7044, "\u0120Neil": 7045, "uts": 7046, "\u0120soul": 7047, "see": 7048, "post": 7049, "\u0120chest": 7050, "fire": 7051, "\u0120Lynch": 7052, "\u0120peaceful": 7053, "OND": 7054, "\u0120Industries": 7055, "\u0120Juan": 7056, "\u0120restore": 7057, "\u0120reliable": 7058, "ming": 7059, "agan": 7060, "Source": 7061, "\u0120Cabinet": 7062, "\u0120remarkable": 7063, "\u0120Trudeau": 7064, "\u0120Es": 7065, "\u0120integrity": 7066, "ove": 7067, "fe": 7068, "\u0120proceedings": 7069, "\u0120connections": 7070, "\u0120unprecedented": 7071, "\u0120Glen": 7072, "ux": 7073, "\u0120earning": 7074, "\u0120ingredients": 7075, "\u0120nominated": 7076, "\u0120Bangladesh": 7077, "made": 7078, "\u0120lessons": 7079, "\u0120breakfast": 7080, "\u0120Relations": 7081, "\u0120loose": 7082, "Al": 7083, "\u0120upgraded": 7084, "ral": 7085, "\u0120Page": 7086, "oto": 7087, "\u0120Queensland": 7088, "\u0120procedure": 7089, "\u0120Small": 7090, "\u0120respective": 7091, "\u0120pictured": 7092, "\u0120Bas": 7093, "\u0120preparation": 7094, "\u0120Myanmar": 7095, "\u0120donation": 7096, "\u0120visible": 7097, "iest": 7098, "\u0120Broadway": 7099, "rick": 7100, "\u0120Schools": 7101, "\u0120arrests": 7102, "\u0120Jessica": 7103, "\u0120Bengal": 7104, "\u0120hell": 7105, "\u0120announcing": 7106, "\u0120mail": 7107, "\u0120McG": 7108, "two": 7109, "rest": 7110, "OD": 7111, "\u0120Bradley": 7112, "\u0120doubled": 7113, "\u0120pledged": 7114, "\u0120comeback": 7115, "\u0120extraordinary": 7116, "\u0120slide": 7117, "\u0120assess": 7118, "\u0120agricultural": 7119, "\u0120Kay": 7120, "\u0120vendors": 7121, "\u0120narrative": 7122, "\u0120reviewed": 7123, "\u0120Pass": 7124, "\u0120inspiration": 7125, "\u0120Hunter": 7126, "\u0120calendar": 7127, "\u0120Diamond": 7128, "\u0120removal": 7129, "ners": 7130, "\u0120Kap": 7131, "\u0120consent": 7132, "\u0120visual": 7133, "\u0120cheese": 7134, "\u0120Ther": 7135, "\u0120FR": 7136, "\u0120Shanghai": 7137, "iah": 7138, "\u0120Cole": 7139, "AK": 7140, "\u0120ranking": 7141, "\u0120cook": 7142, "\u0120halftime": 7143, "\u0120Stars": 7144, "\u0120routes": 7145, "aim": 7146, "\u0120establishment": 7147, "\u0120Mug": 7148, "\u0120survivors": 7149, "urg": 7150, "\u0120Brett": 7151, "\u0120unexpected": 7152, "ained": 7153, "\u0120rarely": 7154, "\u0120Gall": 7155, "\u0120advocate": 7156, "\u0120Nad": 7157, "\u0120911": 7158, "\u0120racist": 7159, "erer": 7160, "\u0120Rev": 7161, "\u0120Section": 7162, "\u0120helpful": 7163, "CT": 7164, "agg": 7165, "\u0120governance": 7166, "\u0120felony": 7167, "\u0120optimistic": 7168, "\u0120electoral": 7169, "EG": 7170, "town": 7171, "\u0120daughters": 7172, "\u0120answered": 7173, "\u0120thin": 7174, "\u0120Classic": 7175, "\u0120shareholder": 7176, "\u0120Blake": 7177, "\u0120Fla": 7178, "\u0120parliamentary": 7179, "dy": 7180, "\u0120commented": 7181, "\u0120tri": 7182, "\u0120globe": 7183, "\u0120mandate": 7184, "\u0120slipped": 7185, "\u0120Tower": 7186, "\u0120operated": 7187, "gers": 7188, "\u0120assured": 7189, "\u0120Martinez": 7190, "\u0120designs": 7191, "\u0120Model": 7192, "\u0120stakeholders": 7193, "\u0120defended": 7194, "\u0120seniors": 7195, "\u0120vacation": 7196, "\u0120globally": 7197, "ump": 7198, "Not": 7199, "\u0120clip": 7200, "\u0120articles": 7201, "BR": 7202, "km": 7203, "\u0120Front": 7204, "PL": 7205, "\u0120adoption": 7206, "\u0120sudden": 7207, "\u0120framework": 7208, "\u0120hanging": 7209, "gl": 7210, "\u0120Sel": 7211, "\u0120moderate": 7212, "\u0120reverse": 7213, "income": 7214, "cor": 7215, "\u0120GB": 7216, "\u0120physically": 7217, "\u0120transparency": 7218, "\u0120Electric": 7219, "\u0120refugee": 7220, "profile": 7221, "iva": 7222, "ately": 7223, "\u0120AC": 7224, "\u0120transferred": 7225, "\u0120affair": 7226, "\u0120Alaska": 7227, "oria": 7228, "\u0120Change": 7229, "\u0120repeat": 7230, "\u0120screening": 7231, "ender": 7232, "\u0120Cas": 7233, "\u0120Dav": 7234, "\u0120focuses": 7235, "\u0120commissioner": 7236, "\u0120upside": 7237, "\u0120Keep": 7238, "\u0120Blues": 7239, "ently": 7240, "\u0120aut": 7241, "\u0120experiencing": 7242, "aman": 7243, "\u0120approve": 7244, "\u0120mile": 7245, "\u0120cheaper": 7246, "\u0120Wind": 7247, "\u0120Store": 7248, "\u0120grabbed": 7249, "\u0120sons": 7250, "\u0120fighter": 7251, "\u0120um": 7252, "\u0120Based": 7253, "don": 7254, "\u0120constitution": 7255, "finals": 7256, "act": 7257, "\u00a2": 7258, "\u0120mill": 7259, "\u0120organisations": 7260, "\u0120Toyota": 7261, "\u0120yuan": 7262, "\u0120terrorists": 7263, "\u0120forth": 7264, "\u0120availability": 7265, "\u0120entrance": 7266, "\u0120volumes": 7267, "\u0120mult": 7268, "plus": 7269, "\u0120Columbus": 7270, "\u0120Summit": 7271, "\u0120babies": 7272, "\u0120Mur": 7273, "\u0120Gray": 7274, "\u0120Char": 7275, "\u0120Butler": 7276, "\u0120pose": 7277, "\u0120Natural": 7278, "\u0120Att": 7279, "\u0120decrease": 7280, "\u0120tens": 7281, "kt": 7282, "\u0120minds": 7283, "\u0120impacted": 7284, "\u0120chapter": 7285, "\u0120Op": 7286, "\u0120Harrison": 7287, "\u0120Rodriguez": 7288, "\u0120ethnic": 7289, "\u0120travelling": 7290, "\u0120Bond": 7291, "ader": 7292, "core": 7293, "\u0120gallery": 7294, "founder": 7295, "\u0120Vill": 7296, "\u0120decent": 7297, "\u0120History": 7298, "\u0120Int": 7299, "\u0120Na": 7300, "\u0120Had": 7301, "\u0120mainstream": 7302, "\u0120Ts": 7303, "\u0120bottle": 7304, "sen": 7305, "\u0120recession": 7306, "\u0120sophomore": 7307, "\u0120silence": 7308, "cc": 7309, "\u0120qualifying": 7310, "\u0120complained": 7311, "\u0120Rad": 7312, "\u0120actively": 7313, "\u0120backs": 7314, "\u0120Musk": 7315, "\u0120careful": 7316, "\u0120meals": 7317, "\u0120Dor": 7318, "\u0120mess": 7319, "\u0120Belgium": 7320, "\u0120ke": 7321, "\u0120Lopez": 7322, "\u0120bow": 7323, "\u0120helicopter": 7324, "was": 7325, "\u0120stone": 7326, "kins": 7327, "\u0120unlike": 7328, "\u0120collision": 7329, "\u0120Alt": 7330, "HP": 7331, "\u0120Mason": 7332, "has": 7333, "\u0120climbed": 7334, "\u0120indication": 7335, "\u0120hotels": 7336, "\u0120loud": 7337, "\u0120Milan": 7338, "kes": 7339, "\u0120badly": 7340, "\u0120trials": 7341, "\u0120impacts": 7342, "\u0120Jane": 7343, "\u0120crossed": 7344, "\u0120discussing": 7345, "\u0120SM": 7346, "\u0120popularity": 7347, "\u0120Want": 7348, "fall": 7349, "\u0120artificial": 7350, "\u0120Bu": 7351, "akh": 7352, "\u0120dominant": 7353, "gov": 7354, "\u0120premier": 7355, "\u0120execution": 7356, "gate": 7357, "\u0120swimming": 7358, "\u0120chat": 7359, "\u0120devastating": 7360, "acking": 7361, "\u0120reception": 7362, "urt": 7363, "\u0120theater": 7364, "\u0120gather": 7365, "\u0120tear": 7366, "uro": 7367, "\u0120democratic": 7368, "\u0120rebels": 7369, "\u0120lifetime": 7370, "\u0120radical": 7371, "uan": 7372, "\u0120techniques": 7373, "ache": 7374, "ior": 7375, "\u0120camps": 7376, "\u0120telephone": 7377, "\u0120Dublin": 7378, "\u0120Brand": 7379, "\u0120Marcus": 7380, "aun": 7381, "\u0120Rec": 7382, "\u012082": 7383, "ban": 7384, "\u0120safely": 7385, "aku": 7386, "aki": 7387, "\u0120bankruptcy": 7388, "FF": 7389, "\u0120format": 7390, "\u0120attached": 7391, "\u0120Fame": 7392, "\u0120Edward": 7393, "\u0120merger": 7394, "\u0120Representatives": 7395, "izes": 7396, "\u0120hidden": 7397, "\u0120val": 7398, "zz": 7399, "\u0120excess": 7400, "\u0120scope": 7401, "\u0120divorce": 7402, "\u0120burn": 7403, "\u0120requirement": 7404, "BB": 7405, "\u0120Hand": 7406, "\u0120cons": 7407, "\u0120risen": 7408, "\u0120twitter": 7409, "\u0120offseason": 7410, "\u0120Sometimes": 7411, "\u0120Inf": 7412, "\u0120Ang": 7413, "uer": 7414, "report": 7415, "\u0120dreams": 7416, "\u0120700": 7417, "ips": 7418, "\u0120Dream": 7419, "\u0120gifts": 7420, "\u0120somehow": 7421, "\u0120Tur": 7422, "\u0120Rachel": 7423, "can": 7424, "\u0120log": 7425, "\u0120Medicaid": 7426, "\u0120les": 7427, "\u0120tired": 7428, "\u0120Arkansas": 7429, "\u0120liquidity": 7430, "\u0120Phillips": 7431, "\u0120BTC": 7432, "\u0120hide": 7433, "\u0120pun": 7434, "\u0120Run": 7435, "lyn": 7436, "\u0120UC": 7437, "\u0120Design": 7438, "\u0120Dev": 7439, "\u0120valuation": 7440, "\u0120reveals": 7441, "\u0120Child": 7442, "other": 7443, "\u0120posed": 7444, "lee": 7445, "\u0120ships": 7446, "\u0120True": 7447, "\u0120describes": 7448, "\u0120runner": 7449, "bro": 7450, "\u0120ankle": 7451, "\u0120od": 7452, "\u0120Annual": 7453, "CL": 7454, "\u0120overhaul": 7455, "ned": 7456, "\u0120bold": 7457, "\u0120mo": 7458, "\u0120Falls": 7459, "\u0120employed": 7460, "\u0120Gro": 7461, "\u0120flash": 7462, "\u0120TD": 7463, "\u0120nervous": 7464, "\u0120integration": 7465, "\u0120smartphones": 7466, "\u0120movements": 7467, "nie": 7468, "ition": 7469, "\u0120Third": 7470, "\u0122": 7471, "\u0120metres": 7472, "\u0120economist": 7473, "omp": 7474, "\u0120teens": 7475, "\u0120everyday": 7476, "\u0120interviewed": 7477, "\u0120briefly": 7478, "],": 7479, "uke": 7480, "\u0120FOX": 7481, "\u0120underlying": 7482, "\u0120Luc": 7483, "\u0120courses": 7484, "ss": 7485, "amed": 7486, "\u00b0": 7487, "ju": 7488, "\u0120Banks": 7489, "\u0120outfit": 7490, "illing": 7491, "\u0120trafficking": 7492, "\u0120urging": 7493, "\u0120belt": 7494, "\u0120rid": 7495, "CP": 7496, "\u0120elderly": 7497, "\u0120Growth": 7498, "\u00c3\u00a1n": 7499, "\u0120Sn": 7500, "\u0120surrounded": 7501, "\u0120sisters": 7502, "\u0120Islam": 7503, "\u0120synd": 7504, "\u0120Costa": 7505, "di": 7506, "\u0120Kl": 7507, "\u0120manufacturer": 7508, "holders": 7509, "\u0120element": 7510, "\u0120load": 7511, "\u0120booked": 7512, "\u0120accompanied": 7513, "\u0120Chamber": 7514, "\u0120briefing": 7515, "Oh": 7516, "imi": 7517, "\u0120Defence": 7518, "\u0120Currently": 7519, "aking": 7520, "\u0120handled": 7521, "\u0120CD": 7522, "\u0120Benjamin": 7523, "\u0120pocket": 7524, "\u0120Kashmir": 7525, "\u0120lighting": 7526, "aps": 7527, "\u01201997": 7528, "ech": 7529, "\u0120addiction": 7530, "\u0120bases": 7531, "\u0120priorities": 7532, "\u0120hardly": 7533, "\u0120Quebec": 7534, "\u0120Earn": 7535, "IES": 7536, "\u0120Zach": 7537, "\u0120Along": 7538, "MI": 7539, "\u0120ins": 7540, "\u0120Rogers": 7541, "\u0120Kan": 7542, "\u0120Future": 7543, "\u0120triggered": 7544, "\u0120Unit": 7545, "\u0120weighed": 7546, "\u0120pointing": 7547, "\u0120chocolate": 7548, "\u0120Browns": 7549, "\u0120ISIS": 7550, "\u0120goalkeeper": 7551, "\u0120saves": 7552, "\u0120Andre": 7553, "burn": 7554, "\u0120Cont": 7555, "\u0120Netherlands": 7556, "\u0120politically": 7557, "\u0120Ashley": 7558, "\u0120Whit": 7559, "aded": 7560, "PH": 7561, "\u0120borders": 7562, "ORE": 7563, "\u0120ally": 7564, "Trump": 7565, "istan": 7566, "\u0120Hunt": 7567, "\u0120Cancer": 7568, "\u0120Grace": 7569, "\u0120Tottenham": 7570, "\u01201960": 7571, "\u0120Marg": 7572, "\u0120Bryan": 7573, "\u0120Again": 7574, "acing": 7575, "\u0120arguments": 7576, "\u0120Southwest": 7577, "\u0120vocal": 7578, "\u0120judgment": 7579, "\u0120engaging": 7580, "\u0120adopt": 7581, "\u0120rental": 7582, "\u0120linebacker": 7583, "\u0120Kardashian": 7584, "\u0120episodes": 7585, "..": 7586, "\u0120unt": 7587, "\u0120vowed": 7588, "\u012079": 7589, "ule": 7590, "\u0120transit": 7591, "\u0120offshore": 7592, "\u0120suppliers": 7593, "\u0120arguing": 7594, "\u0120satellite": 7595, "\u0120Lind": 7596, "\u0120Taliban": 7597, "Buy": 7598, "\u0120Caribbean": 7599, "\u0120Barry": 7600, "\u0120authors": 7601, "\u0120Wolf": 7602, "\u0120viewing": 7603, "\u0120Cubs": 7604, "From": 7605, "\u0120%": 7606, "\u0120currencies": 7607, "Why": 7608, "\u0120Broncos": 7609, "\u0120trick": 7610, "\u0120diesel": 7611, "\u0120Liberal": 7612, "FL": 7613, "\u0120topics": 7614, "\u0120retain": 7615, "\u0120Liberty": 7616, "\u0120acquisitions": 7617, "ced": 7618, "\u0120fre": 7619, "\u0120fleet": 7620, "\u0120copper": 7621, "\u0120Pot": 7622, "jen": 7623, "\u0120Elliott": 7624, "\u0120Pyongyang": 7625, "\u0120object": 7626, "\u0120Use": 7627, "\u0120mutual": 7628, "MP": 7629, "\u0120ev": 7630, "\u0120deny": 7631, "\u0120Everyone": 7632, "lling": 7633, "\u0120pays": 7634, "\u0120drought": 7635, "\u0120corn": 7636, "\u0120workplace": 7637, "rig": 7638, "\u0120Mn": 7639, "\u0120advisory": 7640, "\u0120Cat": 7641, "\u0120chronic": 7642, "\u0120Steelers": 7643, "\u0120boxes": 7644, "\u0120Nap": 7645, "\u0120demonstrated": 7646, "\u0120Tournament": 7647, "\u0120symbol": 7648, "\u0120Afghan": 7649, "\u0120Tan": 7650, "ired": 7651, "\u0120Ev": 7652, "\u0120Consumer": 7653, "\u0120moral": 7654, "\u0120Additional": 7655, "\u0120websites": 7656, "\u0120occasions": 7657, "\u0120fate": 7658, "\u0120pitcher": 7659, "\u0120taxpayers": 7660, "\u0120deemed": 7661, "\u0120Libya": 7662, "\u0120priced": 7663, "\u0120distributed": 7664, "\u0120Forum": 7665, "\u0120rice": 7666, "\u0120bloc": 7667, "\u0120provisions": 7668, "agh": 7669, "\u0120pen": 7670, "\u0120attracted": 7671, "\u0120Edmonton": 7672, "\u0120thousand": 7673, "\u0120painting": 7674, "\u0120il": 7675, "\u0120courtesy": 7676, "\u0120eliminate": 7677, "\u0120acc": 7678, "\u0120meters": 7679, "\u0120reflected": 7680, "\u0120component": 7681, "Every": 7682, "\u0120sells": 7683, "\u0120fault": 7684, "\u0120burned": 7685, "\u0120Kirk": 7686, "\u0120Anna": 7687, "\u0120appeals": 7688, "\u0120eggs": 7689, "\u0120frequent": 7690, "\u0120trigger": 7691, "\u0120revised": 7692, "\u0120Angela": 7693, "\u012081": 7694, "\u0120singles": 7695, "\u0120viral": 7696, "\u0120worries": 7697, "\u0120Should": 7698, "profit": 7699, "\u0120raises": 7700, "\u0120Bryant": 7701, "\u0120Product": 7702, "\u0120tenure": 7703, "\u0120diabetes": 7704, "\u0120colour": 7705, "azz": 7706, "\u0120Girls": 7707, "\u0120practical": 7708, "\u0120blind": 7709, "ancing": 7710, "pictured": 7711, "\u0120finale": 7712, "\u0120Election": 7713, "\u0120athletic": 7714, "\u0120promoted": 7715, "\u0120flowers": 7716, "\u0120trains": 7717, "ario": 7718, "\u0120sufficient": 7719, "IE": 7720, "\u0120examples": 7721, "\u0120shed": 7722, "\u0120birds": 7723, "\u0120chaos": 7724, "\u0120wound": 7725, "\u0120rocket": 7726, "\u0120wet": 7727, "\u0120sample": 7728, "\u0120Nag": 7729, "\u0120Oliver": 7730, "\u0120scrutiny": 7731, "\u0120Seven": 7732, "\u0120Roman": 7733, "\u0120Fred": 7734, "\u0120weird": 7735, "\u0120Tam": 7736, "\u0120Support": 7737, "\u0120Nathan": 7738, "\u0120studying": 7739, "\u0120introduction": 7740, "\u0120tons": 7741, "cer": 7742, "aus": 7743, "ION": 7744, "\u0120critic": 7745, "\u0120Ah": 7746, "alo": 7747, "pur": 7748, "\u0120storms": 7749, "\u0120Mission": 7750, "\u0120credits": 7751, "\u0120grants": 7752, "\u0120comp": 7753, "\u0120hearts": 7754, "part": 7755, "\u0120pin": 7756, "\u0120subsequent": 7757, "\u0120mad": 7758, "\u0120Sacramento": 7759, "woman": 7760, "from": 7761, "\u0120outcomes": 7762, "\u0120oldest": 7763, "\u0120desperate": 7764, "\u0120Tal": 7765, "\u0120DJ": 7766, "ward": 7767, "\u0120audiences": 7768, "\u0120importantly": 7769, "\u0120Emily": 7770, "sk": 7771, "\u0120Heat": 7772, "\u0120Type": 7773, "\u0120Peace": 7774, "\u0120suspicious": 7775, "aly": 7776, "\u0120GET": 7777, "\u0120CAP": 7778, "dis": 7779, "\u0120Iraqi": 7780, "\u0120Reed": 7781, "\u0120strange": 7782, "\u0120Parent": 7783, "900": 7784, "\u0120glad": 7785, "\u0120Troy": 7786, "\u0120Short": 7787, "\u0120heritage": 7788, "\u0120arriving": 7789, "ingly": 7790, "\u0120transformation": 7791, "\u0120lease": 7792, "\u0120collapsed": 7793, "cha": 7794, "\u0120Patrol": 7795, "\u0120computers": 7796, "\u0120principles": 7797, "\u0120sporting": 7798, "\u0120Hughes": 7799, "mile": 7800, "\u0120Cit": 7801, "\u0120drilling": 7802, "\u0120Box": 7803, "\u00c3\u0141": 7804, "bre": 7805, "\u0120Overall": 7806, "\u0120opioid": 7807, "\u0120delighted": 7808, "\u0120honored": 7809, "\u0120Cold": 7810, "\u0120unions": 7811, "\u0120Cou": 7812, "\u0120Circuit": 7813, "\u0120blast": 7814, "sson": 7815, "\u0120Hernandez": 7816, "\u0120Looking": 7817, "\u0120legally": 7818, "\u0120Walmart": 7819, "bridge": 7820, "\u0120mat": 7821, "rad": 7822, "ids": 7823, "\u0120dining": 7824, "\u0120rebound": 7825, "abad": 7826, "\u0120Rom": 7827, "\u0120impose": 7828, "\u0120Alpha": 7829, "\u0120Weekly": 7830, "TER": 7831, "\u0120Jam": 7832, "\u0120absolute": 7833, "\u0120inventory": 7834, "\u0120Billy": 7835, "\u0120Karen": 7836, "\u0120Friends": 7837, "\u0120Cent": 7838, "\u0120Vikings": 7839, "\u0120Much": 7840, "cell": 7841, "ads": 7842, "\u0120ph": 7843, "\u0120killer": 7844, "\u0120Members": 7845, "\u0120shooter": 7846, "\u0120Investigators": 7847, "\u0120Joshua": 7848, "\u0120participated": 7849, "\u0120innocent": 7850, "\u0120Richmond": 7851, "itor": 7852, "\u0120Dal": 7853, "\u0120Operator": 7854, "\u0120makeup": 7855, "\u0120conf": 7856, "\u0120NEWS": 7857, "\u0120Def": 7858, "\u0120chase": 7859, "\u0120Cost": 7860, "mont": 7861, "\":": 7862, "\u0120arrangements": 7863, "stein": 7864, "\u0120retire": 7865, "\u0120Luis": 7866, "\u0120renewed": 7867, "\u0120Township": 7868, "\u0120checked": 7869, "arts": 7870, "\u0120Cash": 7871, "\u0120centres": 7872, "chers": 7873, "\u0120Solutions": 7874, "\u0120legend": 7875, "ige": 7876, "most": 7877, "osed": 7878, "\u0120Por": 7879, "\u0120premiere": 7880, "FS": 7881, "\u0120missiles": 7882, "\u0120Lang": 7883, "\u0120sing": 7884, "best": 7885, "\u0120tail": 7886, "\u0120riders": 7887, "Picture": 7888, "zen": 7889, "\u0120Kent": 7890, "\u0120transform": 7891, "\u0120wildlife": 7892, "\u0120smoking": 7893, "\u0120preseason": 7894, "\u0120Lucas": 7895, "\u0120Anne": 7896, "owski": 7897, "\u0120tape": 7898, "\u0120displayed": 7899, "\u0120forum": 7900, "\u0120anonymity": 7901, "\u0120Indianapolis": 7902, "hips": 7903, "acc": 7904, "\u0120Moreover": 7905, "lers": 7906, "area": 7907, "\u0120Indeed": 7908, "\u0120conducting": 7909, "\u0120infection": 7910, "\u0120dealt": 7911, "OB": 7912, "asing": 7913, "\u0120Gaza": 7914, "itter": 7915, "\u0120Ka": 7916, "\u0120hopeful": 7917, "\u0120Snow": 7918, "\u0120entitled": 7919, "\u0120affecting": 7920, "\u0120eager": 7921, "\u0120circle": 7922, "\u0120laugh": 7923, "\u0120Prosecutors": 7924, "\u0120Dur": 7925, "\u0120barriers": 7926, "\u0120Poll": 7927, "oun": 7928, "\u0120Palm": 7929, "chi": 7930, "\u0120samples": 7931, "\u0120compromise": 7932, "atter": 7933, "\u0120enormous": 7934, "\u0120\u00c3\u00a9": 7935, "coming": 7936, "\u0120Pharmaceutical": 7937, "\u0120rank": 7938, "Let": 7939, "\u0120transgender": 7940, "\u0120Cloud": 7941, "FO": 7942, "\u0120Bor": 7943, "\u0120bonus": 7944, "\u0120ordinary": 7945, "\u0120Pres": 7946, "\u0120HIV": 7947, "ires": 7948, "OSE": 7949, "\u0120dancing": 7950, "\u0120HD": 7951, "\u0120versions": 7952, "\u012088": 7953, "rate": 7954, "\u0120tackles": 7955, "\u0120knock": 7956, "\u0120Emma": 7957, "\u0120motivated": 7958, "\u0120Bennett": 7959, "\u0120Burn": 7960, "\u0120grid": 7961, "\u0120embrace": 7962, "\u0120Spurs": 7963, "\u0120flows": 7964, "\u0120Ger": 7965, "\u0120sponsored": 7966, "\u0120survival": 7967, "ching": 7968, "\u01201995": 7969, "\u0120reward": 7970, "\u0120depends": 7971, "\u0120postseason": 7972, "\u0120loaded": 7973, "\u0120neutral": 7974, "\u0120Pop": 7975, "BL": 7976, "\u0120revolution": 7977, "\u0120Freedom": 7978, "\u0120recovering": 7979, "\u0120requiring": 7980, "ALL": 7981, "ARE": 7982, "\u0120mini": 7983, "lt": 7984, "\u0120FDA": 7985, "\u0120carpet": 7986, "\u0120Prior": 7987, "\u0120admission": 7988, "\u0120Ever": 7989, "\u0120Tribune": 7990, "\u0120Ronaldo": 7991, "\u0120thick": 7992, "\u0120lanes": 7993, "\u012084": 7994, "\u0120Memphis": 7995, "\u0120opt": 7996, "BO": 7997, "\u0120faculty": 7998, "\u0120Chad": 7999, "\u0120SUV": 8000, "\u0120Hen": 8001, "\u0120este": 8002, "\u0120Hu": 8003, "\u0120Agriculture": 8004, "store": 8005, "\u0120Drug": 8006, "inter": 8007, "\u01201996": 8008, "ident": 8009, "\u0120backup": 8010, "\u0120Honda": 8011, "\u0120Hope": 8012, "oes": 8013, "ums": 8014, "amer": 8015, "\u0120breath": 8016, "\u0120110": 8017, "\u0120joke": 8018, "\u0120Ald": 8019, "\u0120wondering": 8020, "\u0120Assad": 8021, "\u0120Rem": 8022, "\u0120fundraising": 8023, "pot": 8024, "\u00c3\u00a8": 8025, "\u0120questioning": 8026, "\u0120pent": 8027, "\u0120Money": 8028, "\u0120Medicine": 8029, "wick": 8030, "\u0120Knights": 8031, "\u0120batting": 8032, "\u0120Mos": 8033, "\u0120designated": 8034, "isse": 8035, "\u0120spotlight": 8036, "\u0120lake": 8037, "\u0120caution": 8038, "\u0120inmates": 8039, "\u0120lap": 8040, "CE": 8041, "\u0120Javascript": 8042, "\u0120Deutsche": 8043, "\u0120Fargo": 8044, "\u0120guaranteed": 8045, "borough": 8046, "\u0120functions": 8047, "\u0120Elementary": 8048, "\u0120Chuck": 8049, "\u0120pitched": 8050, "\u0120Krist": 8051, "\u0120steal": 8052, "\u0120chips": 8053, "\u0120alarm": 8054, "\u0120beloved": 8055, "scale": 8056, "\u0120assaulted": 8057, "\u0120Pentagon": 8058, "\u0120temporarily": 8059, "\u012093": 8060, "\u0120>": 8061, "\u0120Portugal": 8062, "ti": 8063, "HL": 8064, "\u0120decreased": 8065, "\u0120existence": 8066, "\u0120isolated": 8067, "\u0120deposit": 8068, "\u0120studied": 8069, "\")": 8070, "\u0120trophy": 8071, "\u0120Brooks": 8072, "\u0120battling": 8073, "\u0120weaker": 8074, "\u0120Private": 8075, "\u0120Access": 8076, "\u0120virtually": 8077, "\u0120shortage": 8078, "\u0120gaining": 8079, "\u0120bathroom": 8080, "TON": 8081, "\u0120concerning": 8082, "\u0120engineer": 8083, "\u0120bread": 8084, "\u0120demonstrate": 8085, "\u0120Dh": 8086, "\u0120horses": 8087, "\u0120intersection": 8088, "\u0120colors": 8089, "\u0120delegation": 8090, "\u0120notable": 8091, "\u0120withdrawal": 8092, "\u0120Dennis": 8093, "\u0120locally": 8094, "\u0120coastal": 8095, "\u0120comply": 8096, "\u0120Moh": 8097, "\u0120Albert": 8098, "\u0120closest": 8099, "\u0120CITY": 8100, "\u012083": 8101, "\u0120cancelled": 8102, "\u0120\u00f0\u0141": 8103, "\u0120sharply": 8104, "RS": 8105, "\u0120productivity": 8106, "\u0120basket": 8107, "SS": 8108, "\u0120admit": 8109, "ool": 8110, "ination": 8111, "\u0120BB": 8112, "\u0120sur": 8113, "\u0120Steel": 8114, "\u0120Ted": 8115, "\u0120Pac": 8116, "\u0120patterns": 8117, "\u0120listing": 8118, "\u0120replacing": 8119, "\u0120Pradesh": 8120, "\u0120roots": 8121, "\u0120broker": 8122, "\u0120Writing": 8123, "\u0120sued": 8124, "\u0120organised": 8125, "\u0120Thanksgiving": 8126, "\u0120NOT": 8127, "\u0120journalism": 8128, "uel": 8129, "\u0120kilometers": 8130, "\u0120hunt": 8131, "berry": 8132, "\u0120Mother": 8133, "\u0120legitimate": 8134, "\u0120input": 8135, "\u0120Rel": 8136, "\u0120Guardian": 8137, "Ar": 8138, "\u0120transported": 8139, "\u0120bedroom": 8140, "ashing": 8141, "\u0120bats": 8142, "\u0120cleaning": 8143, "\u0120wrapped": 8144, "Pacific": 8145, "\u0120fence": 8146, "\u0120testified": 8147, "\u01201994": 8148, "\u0120interference": 8149, "\u0120matching": 8150, "\u0120expression": 8151, "eta": 8152, "\u0120Spencer": 8153, "\u0120strategist": 8154, "who": 8155, "\u0120victories": 8156, "\u01202022": 8157, "\u0120stakes": 8158, "\u0120buses": 8159, "\u0120Housing": 8160, "\u0120editorial": 8161, "\u012086": 8162, "\u0120Bishop": 8163, "\u0120frustrated": 8164, "\u0120appearing": 8165, "http": 8166, "IGHT": 8167, "\u0120memo": 8168, "\u0120insiders": 8169, "Even": 8170, "\u0120classroom": 8171, "\u0120chef": 8172, "aining": 8173, "].": 8174, "\u0120McD": 8175, "\u012087": 8176, "\u0120Punjab": 8177, "\u0120ancient": 8178, "\u0120resolved": 8179, "\u0120dying": 8180, "\u0120destruction": 8181, "\u0120governing": 8182, "\u0120restructuring": 8183, "\u0120Pick": 8184, "\u0120municipal": 8185, "\u0120engines": 8186, "\u0120Hudson": 8187, "\u00c6": 8188, "\u0120repeal": 8189, "standing": 8190, "\u0120bound": 8191, "\u0120OS": 8192, "\u0120Commonwealth": 8193, "\u0120description": 8194, "\u0120households": 8195, "\u0120mal": 8196, "\u0120stopping": 8197, "equ": 8198, "\u0120regulator": 8199, "\u0120containing": 8200, "\u0120removing": 8201, "\u0120withdraw": 8202, "\u0120buried": 8203, "\u0120lists": 8204, "\u0120Gil": 8205, "\u0120lowered": 8206, "\u0120formally": 8207, "\u0120Round": 8208, "asi": 8209, "\u00a5": 8210, "lett": 8211, "\u0120progressive": 8212, "\u0120Falcons": 8213, "\u0120Raw": 8214, "gun": 8215, "\u0120contributing": 8216, "\u0120hunting": 8217, "\u0120valid": 8218, "\u0120exception": 8219, "\u0120Players": 8220, "\u0120Tra": 8221, "\u0120racism": 8222, "hing": 8223, "chen": 8224, "\u0120differently": 8225, "\u0120championships": 8226, "\u0120Eng": 8227, "\u0120NO": 8228, "\u0120Auto": 8229, "\u0120Erdogan": 8230, "iding": 8231, "\u0120warming": 8232, "\u0120civilian": 8233, "\u0120Dam": 8234, "\u0120fantasy": 8235, "\u0120Nav": 8236, "itions": 8237, "\u0120Drew": 8238, "\u0120Nancy": 8239, "\u0120trapped": 8240, "\u0120Russians": 8241, "\u0120IC": 8242, "\u0120flexibility": 8243, "ular": 8244, "\u0120violated": 8245, "ipped": 8246, "\u0120garage": 8247, "\u0120Deep": 8248, "\u0120praise": 8249, "\u0120Lab": 8250, "\u0120Player": 8251, "\u0120judicial": 8252, "\u0120donate": 8253, "\u0120separated": 8254, "\u0120releases": 8255, "nik": 8256, "\u0120explanation": 8257, "aph": 8258, "\u0120loyal": 8259, "\u0120strongest": 8260, "\u0120Shar": 8261, "\u0120rescued": 8262, "\u0120ambitious": 8263, "\u0120climb": 8264, "\u0120scared": 8265, "\u0120ignored": 8266, "cut": 8267, "\u0120stole": 8268, "\u0120weakness": 8269, "\u0120Ridge": 8270, "oa": 8271, "LA": 8272, "\u0120dep": 8273, "\u0120Powell": 8274, "Do": 8275, "\u0120protein": 8276, "\u0120reiterated": 8277, "\u0120Cox": 8278, "aling": 8279, "\u0120Unlike": 8280, "\u0120Kane": 8281, "\u0120McConnell": 8282, "\u0120showcase": 8283, "\u0120uniform": 8284, "ower": 8285, "\u0120discover": 8286, "stop": 8287, "ipper": 8288, "\u0120treatments": 8289, "\u0120grocery": 8290, "\u0120subscribers": 8291, "lock": 8292, "ple": 8293, "\u0120flew": 8294, "ania": 8295, "\u0120stepping": 8296, "\u0120Soviet": 8297, "\u0120consultant": 8298, "ags": 8299, "\u0120Lim": 8300, "\u012091": 8301, "\u0120Code": 8302, "ports": 8303, "box": 8304, "\u0120lakh": 8305, "\u0120reminder": 8306, "ym": 8307, "\u0120Travis": 8308, "\u0120pure": 8309, "now": 8310, "\u0120VR": 8311, "\u0120achievement": 8312, "\u0120Emirates": 8313, "\u0120Thunder": 8314, "\u0120merely": 8315, "\u0120Ca": 8316, "\u0120Average": 8317, "\u0120Da": 8318, "\u0120topped": 8319, "\u0120Curry": 8320, "\u0120chemicals": 8321, "\u0120amendment": 8322, "\u0120Border": 8323, "\u0120Bat": 8324, "\u0120130": 8325, "\u0120programming": 8326, "\u0120tele": 8327, "\u0120Karl": 8328, "\u0120averaged": 8329, "\u0120Spe": 8330, "world": 8331, "PG": 8332, "\u0120fights": 8333, "\u0120Princess": 8334, "\u0120CIA": 8335, "\u0120Abe": 8336, "\u0120acted": 8337, "only": 8338, "\u0120insight": 8339, "\u0120athlete": 8340, "\u0120Tar": 8341, "commerce": 8342, "\u0120averaging": 8343, "cr": 8344, "\u0120Palestinians": 8345, "Well": 8346, "\u0120bull": 8347, "\u0120choosing": 8348, "\u0120surely": 8349, "\u0120Secret": 8350, "\u0120teammate": 8351, "\u0120Amendment": 8352, "\u0120Birmingham": 8353, "\u0120excitement": 8354, "strong": 8355, "\u0120Sin": 8356, "\u0120damages": 8357, "rated": 8358, "\u0120rankings": 8359, "\u0120conservation": 8360, "home": 8361, "erm": 8362, "ield": 8363, "\u0120disorder": 8364, "acher": 8365, "\u0120naturally": 8366, "atur": 8367, "\u0120packages": 8368, "\u0120approaches": 8369, "icks": 8370, "ourn": 8371, "\u0120odd": 8372, "\u0120shore": 8373, "\u0120Being": 8374, "\u0120magic": 8375, "\u0120tourist": 8376, "largest": 8377, "\u0120whenever": 8378, "\u0120lenders": 8379, "\u0120egg": 8380, "\u0120Chair": 8381, "\u0120lets": 8382, "\u0120warnings": 8383, "\u012f": 8384, "\u0120pol": 8385, "\u0120drag": 8386, "\u0120Amb": 8387, "\u0120Cle": 8388, "\u0120Louisville": 8389, "\u0120Shaw": 8390, "lands": 8391, "\u0120anthem": 8392, "\u0120Trail": 8393, "\u0120accepting": 8394, "anger": 8395, "good": 8396, "\u0120Broad": 8397, "\u0120Lebanon": 8398, "\u0120Million": 8399, "\u0120Henderson": 8400, "\u0120wh": 8401, "\u0120dust": 8402, "\u012092": 8403, "\u0120Mend": 8404, "\u0120checking": 8405, "\u0120Cow": 8406, "sized": 8407, "\u0120automatic": 8408, "\u0120celebrates": 8409, "\u0120arena": 8410, "\u0120finger": 8411, "\u0120Harvard": 8412, "\u0120frustration": 8413, "\u0120strict": 8414, "\u0120preserve": 8415, "\u0120sleeping": 8416, "\u0120converted": 8417, "\u0120insights": 8418, "\u0120tra": 8419, "\u0120jailed": 8420, "\u0120chamber": 8421, "\u0120toxic": 8422, "ading": 8423, "\u0120Triple": 8424, "grade": 8425, "\u0120Rest": 8426, "\u0120Holy": 8427, "oper": 8428, "\u0120desk": 8429, "\u0120matchup": 8430, "\u0120steep": 8431, "\u0120Got": 8432, "lay": 8433, "\u0120Cab": 8434, "aked": 8435, "\u0120Foster": 8436, "\u0120runners": 8437, "\u0120NA": 8438, "\u0120destroy": 8439, "\u0120supportive": 8440, "\u0120Racing": 8441, "\u0120trademark": 8442, "\u0120jacket": 8443, "\u0120horror": 8444, "\u0120Ale": 8445, "\u0120ass": 8446, "\u0120sch": 8447, "abb": 8448, "\u0120planes": 8449, "\u0120impression": 8450, "\u0120Early": 8451, "\u0120Pompe": 8452, "\u0120king": 8453, "\u0120silent": 8454, "\u0120Cuba": 8455, "\u0120medication": 8456, "ences": 8457, "list": 8458, "ailing": 8459, "WA": 8460, "ella": 8461, "\u0120prop": 8462, "\u0120halt": 8463, "\u0120slowing": 8464, "\u0120Foods": 8465, "\u0120anonymous": 8466, "kh": 8467, "\u0120traveled": 8468, "\u0120communicate": 8469, "\u0120ter": 8470, "\u0120Hockey": 8471, "\u0120Robin": 8472, "\u0120swept": 8473, "\u0120clinic": 8474, "ration": 8475, "len": 8476, "\u0120au": 8477, "\u0120careers": 8478, "\u0120Sound": 8479, "\u0120addresses": 8480, "China": 8481, "\u0120Sr": 8482, "\u0120exhibit": 8483, "\u0120Motors": 8484, "\u0120Il": 8485, "\u0120install": 8486, "\u0120Okay": 8487, "\u0120>>": 8488, "hood": 8489, "stand": 8490, "\u0120audit": 8491, "\u0120cake": 8492, "\u0120flames": 8493, "bel": 8494, "\u0120Must": 8495, "\u0120Manafort": 8496, "\u0120commodity": 8497, "night": 8498, "\u0120Room": 8499, "\u0120Lanka": 8500, "\u0120commander": 8501, "ln": 8502, "\u0120database": 8503, "\u0120Set": 8504, "\u0120graduated": 8505, "\u0120Target": 8506, "\u0120outbreak": 8507, "rou": 8508, "\u0120Pope": 8509, "\u0120Equ": 8510, "\u0120polling": 8511, "\u0120dig": 8512, "\u0120brutal": 8513, "\u0120Barn": 8514, "\u0120definition": 8515, "\u0120pit": 8516, "\u0120pickup": 8517, "\u0120Bitcoin": 8518, "\u0120Reid": 8519, "\u0120loving": 8520, "\u0120Herald": 8521, "\u0120Canadians": 8522, "\u0120neighbor": 8523, "\u0120dies": 8524, "ione": 8525, "\u0120Ref": 8526, "big": 8527, "\u0120guards": 8528, "including": 8529, "ente": 8530, "\u0120partially": 8531, "Image": 8532, "\u0120bulk": 8533, "\u0120slot": 8534, "\u0120Northwest": 8535, "\u0120Barclays": 8536, "\u0120airlines": 8537, "iver": 8538, "isi": 8539, "\u0120subsidiary": 8540, "\u0120cont": 8541, "\u0120Daniels": 8542, "\u0120script": 8543, "\u0120unfair": 8544, "\u0120screens": 8545, "\u0120prof": 8546, "\u0120Irma": 8547, "\u01201992": 8548, "\u0120mandatory": 8549, "\u0120Sant": 8550, "\u0120suspicion": 8551, "NES": 8552, "\u0120Lauren": 8553, "igen": 8554, "\u0120prevention": 8555, "\u0120tension": 8556, "ema": 8557, "\u0120tasks": 8558, "\u0120shake": 8559, "\u0120explosive": 8560, "\u0120affects": 8561, "\u0120mum": 8562, "\u0120Dog": 8563, "rer": 8564, "\u0120opted": 8565, "\u0120trio": 8566, "\u0120lesson": 8567, "\u0120automotive": 8568, "where": 8569, "\u0120Montgomery": 8570, "\u0120couples": 8571, "\u012089": 8572, "AF": 8573, "\u0120info": 8574, "\u0120Form": 8575, "\u0120spectrum": 8576, "\u0120bands": 8577, "\u0120okay": 8578, "\u0120stroke": 8579, "\u0120Netanyahu": 8580, "\u0120wealthy": 8581, "\u0120Around": 8582, "\u0120Glenn": 8583, "sec": 8584, "there": 8585, "ickets": 8586, "\u0120Budget": 8587, "\u0120BMW": 8588, "\u0120flagship": 8589, "rier": 8590, "\u0120podcast": 8591, "\u0120pursuing": 8592, "\u0120pos": 8593, "\u0120Islands": 8594, "\u0120Urban": 8595, "page": 8596, "\u0120emotions": 8597, "ided": 8598, "\u0120dividends": 8599, "\u0120boom": 8600, "\u0120accusing": 8601, "ird": 8602, "\u0120Nam": 8603, "ava": 8604, "\u0120wishes": 8605, "\u0120Ny": 8606, "\u0120Stanford": 8607, "\u0120criteria": 8608, "\u0120Jews": 8609, "\u0120engineers": 8610, "\u0120accuracy": 8611, "\u0120displays": 8612, "\u0120deserves": 8613, "ridge": 8614, "omm": 8615, "aur": 8616, "\u0120dramatically": 8617, "\u0120unity": 8618, "speed": 8619, "\u0120declining": 8620, "\u0120permits": 8621, "\u0120Kn": 8622, "\u0120consulting": 8623, "aux": 8624, "ATE": 8625, "\u0120Wat": 8626, "\u0120Editor": 8627, "sy": 8628, "urn": 8629, "\u0120Using": 8630, "asc": 8631, "ital": 8632, "\u0120cre": 8633, "quality": 8634, "\u0120ce": 8635, "\u0120enemy": 8636, "\u0120offence": 8637, "icket": 8638, "\u0120Dick": 8639, "\u0120TH": 8640, "\u0120Championships": 8641, "\u0120overwhelming": 8642, "rib": 8643, "ku": 8644, "rap": 8645, "\u0120homer": 8646, "acion": 8647, "member": 8648, "erv": 8649, "aney": 8650, "MB": 8651, "eded": 8652, "\u0120punishment": 8653, "\u0120negotiate": 8654, "\u0120File": 8655, "stream": 8656, "\u0120Hur": 8657, "\u0120nose": 8658, "\u0120Fab": 8659, "iter": 8660, "\u0120painful": 8661, "ITY": 8662, "eren": 8663, "\u0120collecting": 8664, "Additional": 8665, "\u0120entrepreneurs": 8666, "bal": 8667, "\u0120exploring": 8668, "\u0120guitar": 8669, "\u0120partnerships": 8670, "\u0120furniture": 8671, "\u0120authorized": 8672, "\u0120easing": 8673, "shirt": 8674, "\u0120Gross": 8675, "\u0120politician": 8676, "\u0120Simpson": 8677, "\u0120drone": 8678, "\u0120Katie": 8679, "\u0120profitability": 8680, "\u0120NHS": 8681, "\u0120Sierra": 8682, "\u0120Norway": 8683, "ASHINGTON": 8684, "ific": 8685, "\u0120condemned": 8686, "team": 8687, "\u0120Nebraska": 8688, "\u0120thrilled": 8689, "iller": 8690, "\u0120patrol": 8691, "\u0120WR": 8692, "orm": 8693, "\u0120spectacular": 8694, "\u0120Knight": 8695, "\u0120Travel": 8696, "nam": 8697, "\u0120muscle": 8698, "\u0120Rain": 8699, "\u0120Colombia": 8700, "\u0120nursing": 8701, "\u0120migration": 8702, "\u0120Mitch": 8703, "\u0120releasing": 8704, "\u0120Besides": 8705, "\u0120Mul": 8706, "\u0120headline": 8707, "\u0120contemporary": 8708, "\u0120dev": 8709, "\u0120Chan": 8710, "\u0120indicates": 8711, "\u0120Ap": 8712, "\u0120Lt": 8713, "\u0120Marvel": 8714, "\u0120remembered": 8715, "\u00c2\u00ae": 8716, "\u0120Forces": 8717, "\u0120Colin": 8718, "\u0120Gabriel": 8719, "\u0120objects": 8720, "\u0120RHP": 8721, "kar": 8722, "\u0120Ko": 8723, "\u0120signals": 8724, "\u0120inner": 8725, "real": 8726, "RO": 8727, "\u0120romantic": 8728, "cat": 8729, "\u0120Kel": 8730, "\u0120gut": 8731, "\u0120Boys": 8732, "\u0120youngest": 8733, "\u0120Celtics": 8734, "\u0120slated": 8735, "\u0120remind": 8736, "\u0120productive": 8737, "set": 8738, "Co": 8739, "\u0120Bailey": 8740, "\u0120renewable": 8741, "\u0120Carson": 8742, "\u0120Dj": 8743, "\u0120Kos": 8744, "\u0120urge": 8745, "\u0120fin": 8746, "\u0120pursuit": 8747, "\u0120CON": 8748, "\u0120Chapter": 8749, "\u0120pal": 8750, "\u0120gate": 8751, "\u0120Packers": 8752, "\u0120Reports": 8753, "\u0120Rugby": 8754, "\u0120Masters": 8755, "MO": 8756, "\u012098": 8757, "\u0120catches": 8758, "\u0120Agreement": 8759, "\u0120Tillerson": 8760, "\u0120Ice": 8761, "\u0120rumors": 8762, "\u0120Leonard": 8763, "\u0120Dolphins": 8764, "\u0120LP": 8765, "top": 8766, "\u0120Crist": 8767, "\u0120Hon": 8768, "\u0120blaze": 8769, "\u0120rhetoric": 8770, "ands": 8771, "ady": 8772, "David": 8773, "igh": 8774, "\u0120buzz": 8775, "\u0120Strong": 8776, "\u0120shocking": 8777, "\u0120Rh": 8778, "\u0120negotiating": 8779, "\u0120tender": 8780, "\u0120Johnny": 8781, "\u0120Mario": 8782, "\u012097": 8783, "\u0120Heritage": 8784, "\u0120exists": 8785, "\u0120prayers": 8786, "\u0120lengthy": 8787, "\u0120safer": 8788, "\u0120Halloween": 8789, "\u0120Jared": 8790, "\u0120Connect": 8791, "\u0120bump": 8792, "\u0120strain": 8793, "\u0120filling": 8794, "\u0120trauma": 8795, "\u0120completing": 8796, "cht": 8797, "\u0120killings": 8798, "anne": 8799, "GE": 8800, "\u0120Rescue": 8801, "\u0120dealers": 8802, "\u0120locals": 8803, "\u0120Victor": 8804, "\u0120tragic": 8805, "\u0120delivers": 8806, "orts": 8807, "\u0120rugby": 8808, "\u0120installation": 8809, "asa": 8810, "\u0120Bart": 8811, "\u0120journal": 8812, "school": 8813, "\u0120Come": 8814, "\u0120Veterans": 8815, "Sun": 8816, "\u0120crowds": 8817, "\u0120transparent": 8818, "\u0120implications": 8819, "\u0120Huawei": 8820, "sex": 8821, "\u0120rallied": 8822, "\u0120responses": 8823, "\u0120debris": 8824, "\u0120convention": 8825, "\u0120mothers": 8826, "BE": 8827, "\u0120Route": 8828, "\u0120rebel": 8829, "\u0120Emmanuel": 8830, "aster": 8831, "\u0120understands": 8832, "pound": 8833, "\u0120Castle": 8834, "\u01202021": 8835, "rik": 8836, "\u0120GR": 8837, "\u0120convince": 8838, "ault": 8839, "\u0120passionate": 8840, "\u0120Sciences": 8841, "\u0120arrives": 8842, "idad": 8843, "\u0120celebrities": 8844, "ends": 8845, "\u0120Fans": 8846, "\u0120dish": 8847, "\u0120Corps": 8848, "hat": 8849, "\u0120employer": 8850, "\u0120Hy": 8851, "\u0120powered": 8852, "\u0120grandmother": 8853, "\u0120FL": 8854, "oured": 8855, "VE": 8856, "\u0120Inst": 8857, "\u0120Perez": 8858, "\u0120tune": 8859, "\u0120citizenship": 8860, "\u0120ignore": 8861, "\u0120doubles": 8862, "IB": 8863, "\u0120programmes": 8864, "inda": 8865, "\u0120entities": 8866, "\u0120Interior": 8867, "\u0120prompting": 8868, "\u0120wire": 8869, "\u0120theatre": 8870, "%)": 8871, "\u0120heels": 8872, "\u0120Ju": 8873, "\u0120deposits": 8874, "\u0120trash": 8875, "mond": 8876, "she": 8877, "iana": 8878, "\u0120islands": 8879, "\u0120Tommy": 8880, "\u0120pub": 8881, "\u0120discipline": 8882, "\u0120SW": 8883, "\u0120musicians": 8884, "\u0120embassy": 8885, "\u0120QB": 8886, "hander": 8887, "UES": 8888, "\u0120Ferguson": 8889, "\u0120blocking": 8890, "ahn": 8891, "\u0120fines": 8892, "\u0120tactics": 8893, "\u0120bullet": 8894, "\u0120equipped": 8895, "\u0120escaped": 8896, "\u0120Sil": 8897, "\u0120Pack": 8898, "\u0120Athletic": 8899, "\u0120Mic": 8900, "\u0120Does": 8901, "\u0120Carr": 8902, "\u0120Chargers": 8903, "\u0120Kyl": 8904, "\u0120zones": 8905, "\u00b5": 8906, "iki": 8907, "\u0120greatly": 8908, "\u0120MD": 8909, "\u0120immigrant": 8910, "\u0120Construction": 8911, "\u0120Born": 8912, "iment": 8913, "\u0120Wade": 8914, "\u0120visa": 8915, "\u0120genuine": 8916, "\u0120electronics": 8917, "\u0120Sat": 8918, "\u0120sponsors": 8919, "\u0120Montana": 8920, "\u0120spell": 8921, "\u0120Sachs": 8922, "\u0120Et": 8923, "\u0120foster": 8924, "\u0120locker": 8925, "\u0120explaining": 8926, "\u0120Age": 8927, "\u0120gunman": 8928, "\u0120sauce": 8929, "\u0120cry": 8930, "\u0120stimulus": 8931, "\u0120array": 8932, "\u0120compare": 8933, "\u0120boats": 8934, "\u0120ext": 8935, "iders": 8936, "\u0120Ast": 8937, "\u0120Parks": 8938, "ester": 8939, "\u012094": 8940, "\u0120relating": 8941, "\u0120vegetables": 8942, "\u0120accountable": 8943, "\u0120hyper": 8944, "\u0120Wim": 8945, "\u0120newest": 8946, "\u0120Rome": 8947, "\u0120Chancellor": 8948, "CBS": 8949, "\u0120businessman": 8950, "\u0120Delaware": 8951, "\u0120lands": 8952, "court": 8953, "aria": 8954, "\u0120approaching": 8955, "cker": 8956, "\u0120Salt": 8957, "\u0120Mak": 8958, "\u0120treating": 8959, "\u0120subsequently": 8960, "\u0120Ell": 8961, "xton": 8962, "\u0120180": 8963, "\u0120determination": 8964, "\u0120Salman": 8965, "\u0120Joel": 8966, "\u0120classified": 8967, "\u0120span": 8968, "\u0120earthquake": 8969, "ranked": 8970, "\u012096": 8971, "\u0120Tiger": 8972, "\u0120advocacy": 8973, "mit": 8974, "\u0120colleges": 8975, "\u0120Yeah": 8976, "\u0120Captain": 8977, "\u0120orange": 8978, "\u0120projections": 8979, "\u0120electrical": 8980, "\u0120MA": 8981, "olog": 8982, "\u0120Newcastle": 8983, "oppers": 8984, "\u0120representation": 8985, "\u0120lawsuits": 8986, "just": 8987, "aced": 8988, "\u0120Race": 8989, "\u0120Aqu": 8990, "\u0120Bills": 8991, "\u0120exclusively": 8992, "\u0120Profile": 8993, "\u0120hometown": 8994, "\u0120Stan": 8995, "\u0120starring": 8996, "\u0120deciding": 8997, "\u0120Rating": 8998, "\u0120Medicare": 8999, "\u0120Transport": 9000, "\u0120mystery": 9001, "\u0120Ta": 9002, "\u0120Pad": 9003, "\u0120Swedish": 9004, "\u0120Carroll": 9005, "about": 9006, "\u0120torn": 9007, "\u0120nurse": 9008, "NE": 9009, "\u0120waited": 9010, "\u0120Jeffrey": 9011, "\u0120Until": 9012, "\u0120bone": 9013, "\u0120Bobby": 9014, "\u0120pronounced": 9015, "\u0120pharmaceutical": 9016, "\u0120Gallery": 9017, "\u0120Match": 9018, "\u0120economists": 9019, "\u0120Marketing": 9020, "face": 9021, "\u0120Petroleum": 9022, "ories": 9023, "\u0120Mets": 9024, "\u0120Core": 9025, "billion": 9026, "\u0120examination": 9027, "\u0120Porter": 9028, "2016": 9029, "\u0120golden": 9030, "\u0120sem": 9031, "\u0120Duterte": 9032, "\u0120Jefferson": 9033, "\u0120Tehran": 9034, "\u0120Leicester": 9035, "\u0120DA": 9036, "\u0120adapt": 9037, "\u0120Dame": 9038, "\u0120Ric": 9039, "\u0120unchanged": 9040, "ect": 9041, "\u0120sections": 9042, "kg": 9043, "igned": 9044, "\u0120filings": 9045, "\u0120react": 9046, "\u0120urgent": 9047, "\u0120vessels": 9048, "\u0120spark": 9049, "\u0120butter": 9050, "\u0120Cons": 9051, "\u0120stating": 9052, "\u0120corporations": 9053, "\u0120Hus": 9054, "\u0120damaging": 9055, "raw": 9056, "\u0120equality": 9057, "Two": 9058, "\u0120Mills": 9059, "iu": 9060, "\u0120obligation": 9061, "\u0120Brook": 9062, "arian": 9063, "Re": 9064, "\u0120photographs": 9065, "\u0120epic": 9066, "\u0120Student": 9067, "\u0120Therefore": 9068, "\u0120god": 9069, "\u0120FILE": 9070, "iqu": 9071, "\u0120describing": 9072, "\u0120proceed": 9073, "\u0120cas": 9074, "\u0120Kat": 9075, "\u0120Bra": 9076, "\u0120adequate": 9077, "\u0120passage": 9078, "\u0120thanked": 9079, "USA": 9080, "\u0120Neither": 9081, "\u0120Legislature": 9082, "\u0120finances": 9083, "\u0120inst": 9084, "\u0135": 9085, "\u0120Angels": 9086, "\u0120vet": 9087, "\u0120Dead": 9088, "Ex": 9089, "\u0120kicks": 9090, "force": 9091, "\u0120soy": 9092, "\u0120Windsor": 9093, "\u0120enhanced": 9094, "\u01201993": 9095, "\u0120Czech": 9096, "\u0120gradually": 9097, "\u0120Magic": 9098, "\u0120shadow": 9099, "\u0120neighborhoods": 9100, "\u0120Rivers": 9101, "\u0120rapper": 9102, "\u0120Girl": 9103, "\u0120Rot": 9104, "\u0120crackdown": 9105, "fish": 9106, "\u0120preventing": 9107, "\u0120produces": 9108, "\u0120Mi": 9109, "\u0120notified": 9110, "\u0120underground": 9111, "WE": 9112, "\u0120admits": 9113, "\u0120boxing": 9114, "\u0120refer": 9115, "\u0120commitments": 9116, "\u0120Woman": 9117, "\u0120denies": 9118, "col": 9119, "\u0120Side": 9120, "\u0120ambulance": 9121, "\u0120Rodgers": 9122, "\u0120aftermath": 9123, "\u0120deck": 9124, "irmed": 9125, "\u0120errors": 9126, "\u0120Convention": 9127, "\u0120curb": 9128, "\u0120Shop": 9129, "\u0120Thai": 9130, "\u0120ma": 9131, "\u0120respected": 9132, "\u0120MVP": 9133, "\u0120borrowing": 9134, "\u0120cruise": 9135, "\u0120Sure": 9136, "\u0120sentencing": 9137, "\u0120Obamacare": 9138, "\u0120Ir": 9139, "\u0120Sale": 9140, "\u0120Pete": 9141, "\u0120openly": 9142, "\u0120startup": 9143, "rock": 9144, "\u0120cargo": 9145, "\u0120telecom": 9146, "\u0120Download": 9147, "\u0120extending": 9148, "\u0120Current": 9149, "\u0120competitions": 9150, "\u0120Kids": 9151, "\u0120shy": 9152, "\u0120Kerry": 9153, "\u0120Never": 9154, "\u0120Devils": 9155, "\u0120prim": 9156, "Con": 9157, "\u0120curve": 9158, "\u0120assumed": 9159, "\u0120adjust": 9160, "\u0120immune": 9161, "UE": 9162, "\u0120Ur": 9163, "\u0120conventional": 9164, "\u0120grandchildren": 9165, "\u0120Bol": 9166, "Ad": 9167, "\u0120Maduro": 9168, "fi": 9169, "\u0120UAE": 9170, "\u0120Organ": 9171, "\u0120indicating": 9172, "iem": 9173, "\u0120Against": 9174, "\u0120Ambassador": 9175, "\u0120Seoul": 9176, "\u0120criminals": 9177, "how": 9178, "put": 9179, "\u0120reminded": 9180, "\u0120parked": 9181, "lich": 9182, "\u0120continent": 9183, "\u0120matched": 9184, "\u0120Nicole": 9185, "\u0120genetic": 9186, "\u0120humanity": 9187, "\u0120Tem": 9188, "\u0120indicator": 9189, "\u0120vessel": 9190, "\u0120defendant": 9191, "\u0120Griffin": 9192, "jan": 9193, "\u0120vend": 9194, "boro": 9195, "\u0120brokerage": 9196, "\u0120Fall": 9197, "\u0120mere": 9198, "VILLE": 9199, "\u0120lasted": 9200, "\u0120Mind": 9201, "\u0120patch": 9202, "\u0120Insider": 9203, "\u0120Comm": 9204, "\u0120technique": 9205, "\u0120IM": 9206, "\u0120Cavaliers": 9207, "\u0120shame": 9208, "\u0120mil": 9209, "oot": 9210, "irt": 9211, "\u0120cop": 9212, "\u0120Leon": 9213, "\u0120frozen": 9214, "\u0120slip": 9215, "pton": 9216, "\u0120panels": 9217, "\u0120pitching": 9218, "\u0120leather": 9219, "\u0120Logan": 9220, "\u0120Nearly": 9221, "urch": 9222, "\u0120instructions": 9223, "\u0120Row": 9224, "\u0120Kurdish": 9225, "this": 9226, "\u0120legendary": 9227, "su": 9228, "\u0120stabbed": 9229, "sters": 9230, "\u0120teenage": 9231, "def": 9232, "\u0120oversight": 9233, "\u0120volatile": 9234, "\u0120transmission": 9235, "\u0120Sgt": 9236, "\u0120Indigenous": 9237, "\u0120Oxford": 9238, "\u0120Casey": 9239, "\u0120cor": 9240, "\u0120salaries": 9241, "\u0120sponsor": 9242, "\u0120prescription": 9243, "mat": 9244, "\u0120Leeds": 9245, "\u0120Pakistani": 9246, "\u0120evil": 9247, "\u0120tables": 9248, "\u0120Abdul": 9249, "\u0120expectation": 9250, "\u0120legislature": 9251, "\u0120Lin": 9252, "\u00b9": 9253, "\u0120contractor": 9254, "\u0120shifting": 9255, "\u0120generous": 9256, "\u0120Eddie": 9257, "\u0120puck": 9258, "utt": 9259, "\u0120dubbed": 9260, "\u0120nowhere": 9261, "\u0120betting": 9262, "\u0120disclose": 9263, "\u0124": 9264, "\u0120Fashion": 9265, "\u0120Harper": 9266, "handed": 9267, "isha": 9268, "\u0120Reds": 9269, "\u0120achievements": 9270, "ume": 9271, "\u0120shootings": 9272, "\u0120advisers": 9273, "\u0120Easter": 9274, "\u0120internationally": 9275, "\u0120Wi": 9276, "\u0120Gandhi": 9277, "\u0120Christians": 9278, "\u0120recruiting": 9279, "\u0120experiment": 9280, "\u0120sol": 9281, "\u0120difficulties": 9282, "\u0120influential": 9283, "\u0120hybrid": 9284, "\u0120formation": 9285, "\u0120Boulevard": 9286, "\u0120flags": 9287, "\u0120formula": 9288, "front": 9289, "\u0120inclusion": 9290, "\u0120None": 9291, "ICE": 9292, "\u0120filming": 9293, "\u0120Lou": 9294, "\u0120Reynolds": 9295, "\u0120pump": 9296, "\u0120exceptional": 9297, "ANG": 9298, "\u0120Corporate": 9299, "SAN": 9300, "\u0120Healthcare": 9301, "\u0120Ukrainian": 9302, "aron": 9303, "\u0120pants": 9304, "\u0120drops": 9305, "ete": 9306, "\u0120Studies": 9307, "\u0120wounds": 9308, "END": 9309, "\u0120shower": 9310, "\u0120reviewing": 9311, "\u0120Greater": 9312, "\u0120\u00c2\u00bb": 9313, "itors": 9314, "alled": 9315, "\u0120squ": 9316, "\u0120Ronald": 9317, "\u0120Inv": 9318, "\u0120tougher": 9319, "\u0120balanced": 9320, "\u0120lined": 9321, "\u0120principle": 9322, "\u01201950": 9323, "\u0120leak": 9324, "Be": 9325, "\u0120circuit": 9326, "\u0120unfortunate": 9327, "\u0120Gran": 9328, "\u0120Fish": 9329, "\u0120friendship": 9330, "asp": 9331, "OO": 9332, "\u0120obligations": 9333, "\u0120coup": 9334, "OK": 9335, "\u0120breakdown": 9336, "\u0120hook": 9337, "\u0120researcher": 9338, "inated": 9339, "\u0120Marie": 9340, "\u0120Gab": 9341, "\u0120WA": 9342, "quez": 9343, "General": 9344, "\u0120Swift": 9345, "\u0120gust": 9346, "\u0120Carol": 9347, "\u0120Century": 9348, "\u0120OPEC": 9349, "\u0120Rd": 9350, "\u0120Cop": 9351, "\u0120subjects": 9352, "\u0120Comments": 9353, "ases": 9354, "\u0120relation": 9355, "\u0120Environment": 9356, "\u0131": 9357, "\u0120gasoline": 9358, "\u0120Log": 9359, "\u0120icon": 9360, "\u0120profitable": 9361, "\u0120Retail": 9362, "ANC": 9363, "\u0120appealing": 9364, "\u0120villages": 9365, "\u0120pizza": 9366, "\u0120mall": 9367, "\u0120tower": 9368, "\u0120Linda": 9369, "\u0120accomplished": 9370, "\u0120pod": 9371, "\u0120leaked": 9372, "\u0120Wed": 9373, "\u0120mer": 9374, "\u0120opposing": 9375, "!'": 9376, "\u0120stomach": 9377, "\u0120revealing": 9378, "\u0120ho": 9379, "DF": 9380, "\u0120Sterling": 9381, "\u0120solely": 9382, "\u0120pres": 9383, "\u0120Cy": 9384, "\u0120Latest": 9385, "\u0120Pitt": 9386, "\u0120Think": 9387, "\u0120capability": 9388, "aled": 9389, "\u0120executed": 9390, "alling": 9391, "\u0120Silva": 9392, "\u0120restricted": 9393, "\u0120declaration": 9394, "\u0120kilometres": 9395, "rol": 9396, "\u0120identifying": 9397, "\u0120donors": 9398, "vent": 9399, "\u0120costly": 9400, "ense": 9401, "\u0120Seeking": 9402, "OURCE": 9403, "iving": 9404, "\u0120placing": 9405, "tech": 9406, "\u0120bottles": 9407, "writer": 9408, "\u0120Seahawks": 9409, "oming": 9410, "\u0120Arthur": 9411, "ously": 9412, "bin": 9413, "\u0120Va": 9414, "\u0120bias": 9415, "\u0120liability": 9416, "ift": 9417, "rak": 9418, "aves": 9419, "\u0120cautious": 9420, "\u0120Prize": 9421, "iley": 9422, "\u0120Sharma": 9423, "global": 9424, "\u0120wars": 9425, "sm": 9426, "\u0120Remember": 9427, "wind": 9428, "\u0120Richardson": 9429, "\u0120Sum": 9430, "\u0120Vincent": 9431, "\u0120Rice": 9432, "inf": 9433, "\u0120consultation": 9434, "range": 9435, "\u0120bacteria": 9436, "\u0120architecture": 9437, "\u0120pole": 9438, "\u0120Mach": 9439, "\u0120cattle": 9440, "\u0120abused": 9441, "being": 9442, "\u0120HERE": 9443, "\u0120fame": 9444, "\u0120hearings": 9445, "\u0120Brit": 9446, "\u0120joins": 9447, "\u0120McGregor": 9448, "\u0120oppose": 9449, "\u0120cheer": 9450, "itting": 9451, "imes": 9452, "\u0120usage": 9453, "\u0120stint": 9454, "\u0120outlet": 9455, "\u0120shoppers": 9456, "\u0120Baptist": 9457, "\u0120inappropriate": 9458, "\u0120ALSO": 9459, "\u0120stealing": 9460, "\u0120pledge": 9461, "\u0120Ran": 9462, "\u0120photographer": 9463, "\u0120prevented": 9464, "\u012001": 9465, "\u0120Engineering": 9466, "\u0120Products": 9467, "\u0120universe": 9468, "\u0120McCarthy": 9469, "\u00bf": 9470, "graded": 9471, "\u0120inspection": 9472, "\u0120ind": 9473, "Fi": 9474, "aren": 9475, "\u0120protections": 9476, "\u0120sorts": 9477, "\u0120Works": 9478, "\u0120billionaire": 9479, "\u0120Gay": 9480, "\u0120iPad": 9481, "IX": 9482, "\u0120defendants": 9483, "band": 9484, "\u0120farms": 9485, "\u0120hom": 9486, "gal": 9487, "iant": 9488, "\u0120northeast": 9489, "\u0120Joint": 9490, "\u0120canceled": 9491, "\u0120toys": 9492, "\u0120rein": 9493, "\u0120Tumblr": 9494, "pees": 9495, "\u0120Aut": 9496, "Police": 9497, "\u0120aide": 9498, "\u0120achieving": 9499, "\u0120mund": 9500, "\u0120Commercial": 9501, "first": 9502, "\u0120anticipate": 9503, "iac": 9504, "\u0120probation": 9505, "hem": 9506, "\u0120ports": 9507, "\u0120Ker": 9508, "\u0120supplier": 9509, "\u0120Father": 9510, "\u0120Anti": 9511, "ashed": 9512, "\u0120Table": 9513, "bledon": 9514, "\u0120unf": 9515, "\u0120Rash": 9516, "\u0120LeBron": 9517, "Car": 9518, "bu": 9519, "\u0120Derek": 9520, "\u0120accounted": 9521, "\u0120Pri": 9522, "nings": 9523, "\u0120receives": 9524, "lev": 9525, "\u0120bilateral": 9526, "\u0120List": 9527, "\u0120LG": 9528, "\u0120Jazz": 9529, "\u0120restored": 9530, "\u0120battles": 9531, "ials": 9532, "\u0120occupied": 9533, "\u0120repairs": 9534, "\u0120radar": 9535, "\u0120MLB": 9536, "\u0120NC": 9537, "\u0120flexible": 9538, "\u0120Command": 9539, "\u0120coat": 9540, "\u0120Vir": 9541, "\u0120Colts": 9542, "\u0120BC": 9543, "\u0120twin": 9544, "\u0120prisoners": 9545, "\u0120slowed": 9546, "hop": 9547, "\u0120Inn": 9548, "\u0120conflicts": 9549, "\u0120measured": 9550, "\u0120autonomous": 9551, "\u0120Bow": 9552, "\u0120disc": 9553, "inson": 9554, "\u0120Sche": 9555, "aire": 9556, "\u0120SU": 9557, "\u0120Peterson": 9558, "\u0120drafted": 9559, "\u0120Pelosi": 9560, "\u0120Soon": 9561, "\u0120mechanism": 9562, "\u0120accountability": 9563, "\u0120Northeast": 9564, "\u0120fo": 9565, "\u0120analytics": 9566, "\u0120Everything": 9567, "\u0120perceived": 9568, "bers": 9569, "\u0120celebrations": 9570, "\u0120instruments": 9571, "\u0120strip": 9572, "\u0120Juventus": 9573, "\u0120unfortunately": 9574, "\u0120GA": 9575, "\u0120wrestling": 9576, "\u0120statue": 9577, "vis": 9578, "five": 9579, "\u0120marine": 9580, "\u0120Samuel": 9581, "\u0120responsibilities": 9582, "hill": 9583, "\u0120recruit": 9584, "\u0120referee": 9585, "\u0120Rail": 9586, "\u0120Eagle": 9587, "\u0120Congressional": 9588, "\u0120breathing": 9589, "\u0120bass": 9590, "hit": 9591, "\u0120spreading": 9592, "\u0120evacuated": 9593, "\u0120intellectual": 9594, "\u0120sovereign": 9595, "ocked": 9596, "\u0120slammed": 9597, "\u0120formerly": 9598, "\u0120arch": 9599, "\u0120difficulty": 9600, "\u0120AFC": 9601, "\u0120Fresh": 9602, "\u0120invite": 9603, "oner": 9604, "\u0120Mich": 9605, "\u0120pitches": 9606, "stock": 9607, "\u0120initiated": 9608, "\u0120Ku": 9609, "\u0120Florence": 9610, "yd": 9611, "\u0120Fast": 9612, "\u0120musician": 9613, "\u0120Chile": 9614, "anga": 9615, "\u0120dairy": 9616, "\u0120contractors": 9617, "ador": 9618, "\u0120Planning": 9619, "\u0120ultra": 9620, "\u0120prayer": 9621, "\u0120suggestions": 9622, "\u0120Ek": 9623, "\u0120random": 9624, "\u0120Sullivan": 9625, "\u0120sensor": 9626, "\u0120homicide": 9627, "\u0120Income": 9628, "\u0120settings": 9629, "\u0120acknowledge": 9630, "\u0120Stay": 9631, "\u0120terminal": 9632, "\u01201991": 9633, "West": 9634, "hard": 9635, "arc": 9636, "\u0120combine": 9637, "\u0120privately": 9638, "\u0120barrier": 9639, "\u0120median": 9640, "\u0120whereas": 9641, "\u0120Titans": 9642, "\u0120incentives": 9643, "\u0120historically": 9644, "\u0120indictment": 9645, "\u0120hiding": 9646, "\u0120PDT": 9647, "\u0120rebuild": 9648, "hol": 9649, "\u0120pour": 9650, "\u0120airports": 9651, "\u0120Edinburgh": 9652, "\u0120appoint": 9653, "\u0120Jul": 9654, "\u0120confusion": 9655, "\u0120dam": 9656, "ork": 9657, "\u0120calculated": 9658, "\u0120hood": 9659, "\u0120Temple": 9660, "\u0120Yorkshire": 9661, "EP": 9662, "ented": 9663, "\u0120apology": 9664, "awi": 9665, "\u0120facilitate": 9666, "\u0120Sheffield": 9667, "\u0120rides": 9668, "\u0120compelling": 9669, "\u0120Gonzalez": 9670, "roll": 9671, "ONG": 9672, "UP": 9673, "\u0120Aj": 9674, "pen": 9675, "\u0120Var": 9676, "\u0120IPO": 9677, "\u0120Animal": 9678, "\u0120shifted": 9679, "\u0120140": 9680, "\u0120tobacco": 9681, "El": 9682, "ild": 9683, "\u0120uncertain": 9684, "Un": 9685, "\u0120caps": 9686, "\u0120recreational": 9687, "\u0120Tu": 9688, "\u0120enc": 9689, "More": 9690, "iko": 9691, "\u0120Everton": 9692, "\u0120Walk": 9693, "\u0120murdered": 9694, "\u0120pur": 9695, "\u0120divisions": 9696, "ivo": 9697, "\u0120farming": 9698, "\u0120courage": 9699, "ped": 9700, "\u0120crying": 9701, "\u0120attributed": 9702, "\u00c3\u00a9e": 9703, "\u0120implementing": 9704, "\u0120Wang": 9705, "\u0120speeds": 9706, "alk": 9707, "aming": 9708, "eries": 9709, "\u0120avoided": 9710, "\u0120Messi": 9711, "\u0120considerable": 9712, "rt": 9713, "\u0120inauguration": 9714, "\u0120PH": 9715, "\u0120soldier": 9716, "\u0120ore": 9717, "ollywood": 9718, "otive": 9719, "\u0120Auburn": 9720, "\u0120Sav": 9721, "\u0120Put": 9722, "\u0120emphasis": 9723, "\u0120af": 9724, "owed": 9725, "\u0120diagnosis": 9726, "\u0120cart": 9727, "\u0120assisted": 9728, "\u0120Order": 9729, "\u0120Estate": 9730, "\u0120intends": 9731, "\u0120Common": 9732, "\u0120adventure": 9733, "\u0120beliefs": 9734, "\u0120lasting": 9735, "cel": 9736, "\u0120deployment": 9737, "tra": 9738, "\u0120Stories": 9739, "\u0120quote": 9740, "\u0120feared": 9741, "\u0120convenience": 9742, "\u0120optimism": 9743, "\u0120scientist": 9744, "\u0120Enterprise": 9745, "\u0120Rex": 9746, "\u0120Fel": 9747, "\u0120poses": 9748, "\u0120root": 9749, "\u0120evacuation": 9750, "\u0120presidents": 9751, "\u0120Rather": 9752, "\u0120grave": 9753, "\u0120Heights": 9754, "\u0120jumping": 9755, "driven": 9756, "\u0120aluminum": 9757, "\u0120holders": 9758, "\u0120boot": 9759, "iber": 9760, "\u0120precious": 9761, "uation": 9762, "FP": 9763, "uses": 9764, "\u0120commentary": 9765, "\u0120advances": 9766, "\u0120Nissan": 9767, "\u0120bronze": 9768, "\u0120inspire": 9769, "\u0120starters": 9770, "\u0120Evan": 9771, "rah": 9772, "body": 9773, "\u0120crops": 9774, "\u0120seeds": 9775, "\u0120harsh": 9776, "\u0120Homeland": 9777, "\u0120enabled": 9778, "ological": 9779, "\u0120workshop": 9780, "\u0120chains": 9781, "amps": 9782, "\u0120amongst": 9783, "\u0120Bear": 9784, "\u0120certified": 9785, "\u0120Julie": 9786, "\u0120mountains": 9787, "VA": 9788, "\u0120fed": 9789, "\u0120buyer": 9790, "ahl": 9791, "\u0120Bos": 9792, "\u0120Crystal": 9793, "\u0120quest": 9794, "\u0120Stein": 9795, "\u0120acceptable": 9796, "\u0120unbeaten": 9797, "iring": 9798, "ural": 9799, "\u0120uncomfortable": 9800, "\u0120partial": 9801, "\u0120sacrifice": 9802, "\u0120Grande": 9803, "\u0120arrangement": 9804, "\u0120packaging": 9805, "screen": 9806, "\u0120mirror": 9807, "\u0120sweep": 9808, "\u0120connecting": 9809, "\u0120panic": 9810, "\u0120Jacksonville": 9811, "\u0120Kremlin": 9812, "\u0120origin": 9813, "Brien": 9814, "\u0120northwest": 9815, "\u0120carriers": 9816, "\u0120Riley": 9817, "\u0120aud": 9818, "\u0120appreciation": 9819, "\u0120eliminated": 9820, "\u0120Analyst": 9821, "CR": 9822, "\u0120firearm": 9823, "\u0120accommodate": 9824, "\u0120structural": 9825, "\u0120appealed": 9826, "\u0120charter": 9827, "ressing": 9828, "\u0120alike": 9829, "white": 9830, "\u0120slowdown": 9831, "\u0120weigh": 9832, "\u0120Palmer": 9833, "ound": 9834, "\u0120Conn": 9835, "\u0120branches": 9836, "\u0120ace": 9837, "\u0120insists": 9838, "yo": 9839, "\u0120Lynn": 9840, "\u0120CC": 9841, "\u0120Within": 9842, "\u0120coll": 9843,
[...]
